[PAD]
[UNK]
[CLS]
[SEP]
[MASK]
!
"
#
$
%
&
'
(
)
*
+
,
-
.
/
0
1
2
3
4
5
6
7
8
9
:
;
<
=
>
?
@
[
\
]
^
_
`
a
b
c
d
e
f
g
h
i
j
k
l
m
n
o
p
q
r
s
t
u
v
w
x
y
z
{
}
¡
©
ª
«
¬
°
±
²
³
¸
º
»
½
¾
ß
æ
ø
þ
đ
ı
ł
œ
ˈ
˝
ˮ
α
β
γ
δ
ε
η
ι
κ
λ
μ
ν
ξ
ο
π
ρ
ς
σ
τ
υ
φ
χ
ψ
ω
а
б
в
г
д
е
ж
з
и
к
л
м
н
о
п
р
с
т
у
х
ч
ш
ъ
ы
ь
я
–
—
‘
’
‚
“
”
„
‟
•
…
⁄
€
≤
##r
##z
##u
##h
##a
##n
##o
##g
##e
##s
##t
##i
##b
##p
##l
##c
##6
##j
##v
##m
##d
##k
##4
##8
##y
##f
##x
##w
##5
##2
##1
##°
##0
##9
##3
##7
##q
##а
##þ
##η
##φ
##ι
##σ
##μ
##α
##τ
##ο
##ς
##đ
##ø
##ı
##²
##ß
##ł
##р
##е
##к
##с
##н
##я
##х
##ρ
##ε
##δ
##т
##ч
##в
##о
##ν
##ъ
##л
##г
##и
##п
##˝
##ь
##º
##ξ
##υ
##⁄
##у
##ж
##ˈ
##д
##ω
##π
##æ
##χ
##λ
##©
##œ
##¸
##ш
##κ
##β
##ˮ
##½
##€
##³
##γ
##ы
##м
##re
##at
##nt
##ri
de
##st
##ul
in
##le
##or
##are
##in
##ce
##it
##ar
##ent
si
##an
##ie
##ro
co
##er
##ic
##un
##ate
sa
##ru
##al
ca
##ii
re
##ste
##ui
##ut
##ct
##lor
ace
##on
##ra
un
##ia
##ea
##en
la
##entru
pentru
cu
pro
##ol
ma
##si
##ati
din
##am
int
care
##mp
pri
##ului
ce
##se
##uri
con
##te
su
se
##area
##ari
##de
##is
nu
##pe
##il
este
st
eu
pre
pe
##im
##sta
al
euro
##ci
##ori
##ata
##ca
##pt
##ot
##om
##ve
##int
tre
##rea
mai
##me
##oc
ex
##ort
##iz
com
##and
par
acest
au
ne
##ur
##eri
##ara
##iei
##za
imp
##ici
ac
treb
##ica
##sa
fa
fo
##um
##iun
an
va
ar
##va
me
##bil
##du
##ele
##ern
no
##ma
##atii
##uie
##mb
##ult
sp
##ament
##pa
fi
##itate
do
##ala
po
##ura
##ant
sunt
lu
##ile
##ana
##sc
ra
##ine
europe
le
##asta
##cti
##ice
aceasta
##ord
trebuie
##ist
##cl
##ei
##sp
fost
am
##ale
##et
priv
as
##el
aceste
ap
cont
##ch
##ov
##oare
##id
pol
prin
at
ale
cre
ad
##tate
##la
af
ur
polit
put
comis
di
##arii
##ilor
##une
##ze
##ind
ue
##od
##os
##urile
##ene
##fic
##ite
##nta
##li
reg
##ces
part
##rat
per
##cut
##port
##ran
consi
luc
20
##con
##lic
mult
##dint
##us
acord
ob
##di
vor
##ion
##men
intre
leg
memb
decl
##enta
##lament
##for
##arat
parlament
##sedint
##ua
##iile
##cat
to
##eaza
##stit
##itatea
##feri
##ga
##ane
##rul
##rept
##ita
##ation
##conom
dez
mod
presedint
fie
da
econom
comp
##up
pa
##ere
sau
##ina
europ
import
drept
state
dis
ti
fin
av
##pri
uniun
li
##eni
##oa
prob
urm
##iti
european
##urilor
cat
ch
tot
ve
rep
important
##una
raport
##da
sol
ef
cri
lucru
privind
tari
##rii
sc
dom
ase
toate
##gra
##op
##ub
##ta
##arte
vi
min
##atori
##menea
asemenea
loc
ci
##stru
proble
declarat
##atia
rez
tran
##vo
##abil
intern
sub
ser
fapt
europene
##zent
##aliz
du
europeana
dint
##ge
gu
timp
daca
##ente
##rij
te
pl
##vern
intr
ince
dep
spe
pot
cele
##ug
##mul
trebui
guvern
dem
mas
##vol
membre
ceea
##orul
or
asi
dintre
##sti
##ir
##era
ext
act
##mn
##upra
##og
repre
##iilor
asupra
##cial
##form
cad
acestea
prop
##ctiv
cons
200
##ric
##ive
foarte
##tim
##duce
aj
unei
dupa
##gura
##as
pers
##inta
##itu
##zit
##rie
##pect
dori
##cia
##ista
dezvol
##oi
ev
dar
##ire
ab
apro
mun
vot
##iune
##mele
##itati
aut
sch
consili
for
cl
##gan
res
##der
##dere
##nte
##dit
sprij
so
##ment
##lu
##clu
##ba
##mi
stat
tur
cand
acesta
cum
ba
europa
kos
unui
##pl
minist
contin
##erg
exista
mil
mi
##art
kosov
neces
are
##bile
el
##tati
pub
##ced
faptul
##iect
dezvolt
##mat
##mului
en
fe
iar
comun
op
##anci
comisiei
noi
inc
ag
comisia
##fel
lib
lun
cadrul
prote
ani
##curi
noa
statele
poate
##est
##unct
face
##zi
nive
dire
produ
situ
##rib
nivel
putea
internation
cetate
organ
##ect
##dic
catre
##fici
noast
sar
sprijin
politica
##ania
##elor
caz
##em
##ocie
##cum
ast
##oane
insa
mare
##ond
acum
nici
##sul
cetaten
##min
astfel
fata
##itatii
cel
consider
##enti
##es
##stitut
prezent
##na
##rile
##bate
gen
doua
ade
inde
ul
schim
gre
urmare
##otri
gru
princi
ori
##otriva
discut
##ert
conf
##ulte
##spre
##ani
afir
doar
##rate
uniunea
proces
energ
##ctive
financi
##atie
##iar
acestui
multe
tara
kosovo
serb
organiz
precum
cur
##veste
##rilor
deci
grup
siste
pana
creste
##atiei
##end
viit
##tatea
##oarece
stabil
deoarece
democ
##sibil
ina
##inte
despre
impotriva
schimb
nevo
rec
neg
viz
tra
special
perm
ju
uniunii
inca
munca
cal
cred
ave
##ja
##oritati
lor
aplic
alte
inclu
##unt
privire
##ction
mon
parlamentul
alt
bi
##ativ
##lin
##iv
ado
pie
##iale
semn
nation
inf
priveste
##uz
adopt
ment
problema
sust
coop
##eze
##stri
##atul
##00
ele
punct
##ferit
##ora
avem
fond
inch
inter
fun
parte
##derea
##lo
rezol
cooper
num
ajut
##arile
inve
##ific
cro
princip
ut
##atiile
obie
##sca
##gre
presedinte
##spun
domeni
gener
rand
urma
desc
ref
util
proiect
resp
disp
prov
asa
trat
##iment
isi
solic
##ris
transp
fara
##gur
activ
##sf
ai
##prin
securi
sarb
##ona
vom
pi
institut
posibil
##rateg
sect
san
progra
politic
avea
inform
strateg
reprez
alb
maj
##geri
##siun
##uit
##pta
pop
rom
vedere
##mis
liber
##cent
domn
cer
maced
##olog
macedon
atat
##ole
ga
mo
##usi
mot
det
##atura
dore
imb
serbia
##leg
prim
cea
facut
utiliz
##ers
##lig
##ative
##sele
##vit
ter
unor
##atoare
lui
parlamentului
sal
deciz
reprezent
serv
bug
##care
201
##ator
tarile
##isl
cei
buget
bine
anga
##lica
##ure
desi
contrib
nevoie
dezbate
solut
acestei
legisl
ind
car
##ctiva
dev
efici
on
asigura
primul
propune
exe
afirmat
##act
##ali
angaj
intere
ultim
importanta
rel
##lement
regul
##unat
##irea
bel
##tele
efort
dl
plan
incep
probleme
extern
cent
##iuni
economica
decat
consiliului
exp
##ozit
condit
##alul
reprezinta
trecut
persoane
##orii
##mbrie
direct
core
noastre
ram
##viz
##rem
masuri
mari
sup
respect
adev
fel
democrat
##ract
19
##ativa
##enit
ban
bul
##isa
criza
aspect
ta
##use
imbunat
inte
##ume
##ti
##arul
##inut
rezult
piata
ech
referit
luni
##ato
ant
raportul
economice
chest
prof
##mplu
dle
putem
cate
ader
##ptam
##onsa
##tei
realiz
raspun
finant
bulg
##tul
##mai
##hn
mart
autoritati
##ide
##rioa
##iunea
oam
##lab
##uza
asta
abord
ii
conv
initi
negocie
ins
chiar
public
pune
responsa
continu
obt
potri
celor
rezolut
reduce
protect
es
aplicare
baza
##ace
medi
##siv
propri
sublin
actu
investit
val
domeniul
##unci
atunci
presedintele
##ens
sale
##reaza
fiind
fac
##arilor
omului
##ciei
partid
mom
guvernul
drepturile
##erm
progre
sin
cop
nou
##atice
##easca
deja
sper
amb
##ovic
buna
procesul
##sit
lim
##can
agric
sf
##cept
solicit
dezvoltare
sigura
rol
compet
potrivit
prom
##atorii
putin
ada
refor
partici
prez
moment
turcia
intreb
scris
consol
avut
ofici
acela
responsabil
##atate
statelor
votat
of
politici
instru
aste
##voarea
##pte
trei
anul
##rol
##urn
drepturilor
intreprin
##loc
doresc
##tic
favoarea
##cur
ajun
partea
astazi
ministrul
##atiilor
conform
efect
##selor
situatia
popul
politice
consiliul
##cul
cap
feme
##uneri
timpul
totusi
##lice
perioa
##lob
constru
inceput
il
noua
bu
mention
pozit
##peri
##gh
expri
##gr
aceea
indep
##entia
tut
gara
##sk
##orilor
##ose
bun
recun
##iere
consolid
##zb
##enii
##atiun
##dea
scop
gra
peste
fol
bos
pat
aface
##ule
cult
reprezentant
##grad
##amentul
##cre
clar
doam
alegeri
spus
noastra
oblig
##ne
##ier
cauza
oc
rap
data
parten
##xim
imbunatati
print
trans
est
fund
inainte
indu
financiare
consum
anum
cazul
bosn
lan
##uror
tuturor
desch
continua
rid
glob
bih
acestor
##ilea
numai
sara
viitor
tehn
servic
aici
saptam
##ez
vorb
termen
obiective
##ni
##ntei
##cv
##res
externe
##ute
##aria
##bila
siguranta
dum
##melor
##tatii
pare
multi
##ing
munt
##cii
belgrad
propuneri
preg
securitate
##eti
compan
bal
##stra
##ini
##itatile
##uta
bene
##arie
transport
mar
stand
comer
nationale
intal
acelasi
tim
##fice
inal
independ
cateva
razb
intele
diferi
##ha
cetatenilor
exemplu
cetatenii
implic
suntem
##atului
000
onu
##ineri
unul
stra
internationale
soc
##isc
masura
permite
motiv
##arsit
una
incer
nor
afect
ver
confru
##ciala
eval
energet
dezvoltarea
socie
inclusiv
perioada
prima
asist
intreprinde
inv
fiecare
oferi
standar
muntene
bar
##stig
times
##ioane
ora
##minist
provoc
publice
administ
elect
zi
##man
fundament
macedonia
privinta
cere
autoritatile
bosnia
sfarsit
comple
razboi
parteneri
comisar
mij
##orului
acestora
##uth
general
resur
##reg
rus
proce
exist
majori
##times
dece
international
setimes
south
nato
dna
indepl
eg
milioane
##ex
##iunile
apar
ing
sti
unele
membru
##vi
orice
##caz
sociale
lum
arm
intro
##osc
10
referitoare
pas
numele
##anda
desf
evalu
stim
mea
industri
intam
incat
obiectiv
europei
##ore
##fica
croatia
ame
imi
function
deput
sustine
##labor
##erv
tarii
acordul
unite
med
putern
sta
##ili
##east
gest
crestere
##atele
cerce
multume
southeast
##medi
afla
sud
afl
multumesc
social
era
spune
reglement
acces
##atilor
spun
cercet
##sion
##mna
afaceri
aproxim
##teri
dist
importante
clim
aproximativ
##atorilor
impre
nostru
##anu
##isab
oper
civ
extin
lisab
esenti
##oriz
lisabona
capa
condu
##ntele
ist
##entie
region
tri
legate
##urii
control
unde
grecia
##ape
##oni
ret
integr
##iint
juri
##telor
pet
acestia
lip
ridic
ales
ide
suc
evid
##ctura
pract
is
##lea
dific
199
##urt
##ver
opin
##alitate
toti
vo
##dem
ia
legatura
europeni
cor
indi
##dent
sur
na
promov
ha
alta
ati
sectorul
propunerea
##erul
##asca
desfas
doc
##din
zile
##tori
combate
amend
speci
politicii
zon
supra
docum
corect
conse
acce
baz
12
adaug
datori
cresterea
##ko
intru
sprijinul
cost
##cale
faca
standarde
##itiv
##cin
cooperare
##eie
pret
mondi
##oaste
locuri
printre
cla
##cure
##erc
regiune
vic
doilea
necesare
ape
luna
ministru
ima
lung
coleg
adevar
romania
nord
11
stru
milit
albane
echi
capit
repub
##fere
pier
##ciale
ingrij
impreuna
incal
##stin
informatii
2009
cooperarea
dreptul
salut
furn
comune
bulgaria
stu
zona
benefic
furniz
proced
calitate
sistem
pesc
even
opt
domnule
mici
democr
date
semnific
ge
garant
oficial
cun
edu
sim
comert
avand
##oase
ei
##mm
solid
##imin
dura
##mente
##eamna
instrument
intaln
demon
##mei
sef
##rag
asistenta
nivelul
##regist
##olul
succes
lupta
##20
##ordon
##odata
inregist
lucrat
protej
subiect
energie
poz
eforturile
##rit
aprob
mand
extrem
intrucat
incre
##gerea
lo
conflic
plus
nume
##alist
##je
##andu
acuz
albania
voi
comisie
prev
grupului
aproape
it
prea
eficienta
inseamna
crearea
form
person
agricult
meu
##stul
##rica
curt
problemele
##atorul
viata
transpare
obtine
us
intrea
comuna
analiz
cin
teri
##oci
##ova
spori
##reze
##ront
##iat
##chet
##rului
presedinta
germ
incura
##ski
adecv
##siunea
##amil
artic
justit
##anta
vederea
aiba
reun
15
declar
internationala
##iste
##derii
modific
numar
adevarat
masurile
##oseb
##ros
actiune
miliar
emis
##dura
venit
impact
viole
##nd
regulament
financiar
aliment
mediu
contex
particip
scopul
coordon
exerc
##fin
saptamana
grupul
##rum
##he
##erte
conseci
statut
2010
##zei
pres
raspuns
asigur
tehnolog
parti
##iunii
##lect
##elt
##entei
transf
facem
protectia
directiva
intreaga
anunt
##mite
bune
intamp
intreg
intent
situatie
##usa
##itat
rece
declara
sufici
amen
tero
et
anumite
chelt
necesar
famil
##alog
##itatilor
nim
##pre
obs
##omb
##nea
ec
tele
##iet
oport
##aniei
rapid
##gure
##vede
tex
concent
sfarsitul
ocup
sens
##cle
aderare
##gov
reviz
sociala
diferite
conferi
sua
lume
castig
financiara
serbiei
interne
##pro
adu
##siune
bru
nucle
##ande
munteneg
doi
tratatul
mecan
redu
##roa
implement
##ila
guvernului
teritori
provin
herte
folos
action
hertegov
fortei
procedura
spre
rezolutie
decembrie
trib
##bal
atin
product
sustin
lans
abs
mate
dorim
monit
mecanis
##bru
dumnea
ajuta
inov
turi
anului
expl
confrunta
rusia
crizei
oportun
miliarde
ea
nostri
acesteia
indeplin
mn
##upt
national
##uda
gestion
partidul
dialog
amendament
port
##vant
sistemul
##oastra
viitoare
candid
deoseb
ramane
elabor
recom
##ater
istori
##unie
capac
doamn
solidari
##alia
patru
##aj
respe
oameni
tarilor
constitut
partide
martie
initiativa
perso
##ost
victim
##osi
tribun
pescuit
principi
dezbatere
##alitatea
simp
##ducerea
iunie
muntenegru
fundamentale
demonst
fra
pla
##nti
##cret
camp
urg
pozitia
sublinie
americ
deza
##ton
##alului
##imente
mier
repe
cinci
raportului
##ust
educat
##lie
economic
##ivers
##voastra
dumneavoastra
dv
constit
miercuri
natura
agent
pietei
om
solution
document
##ficarea
var
ata
mentine
interes
met
cir
climatice
oamenii
pen
nicio
domeniu
2008
program
probabil
perspe
aprop
aderarea
ianu
dvs
aspecte
recunoaste
rolul
cadru
##ilater
opozit
momentul
30
##intele
tip
peric
desigur
doamna
ianuarie
majoritatea
##olo
copii
poata
incepe
motive
ofera
sanatate
esential
curs
orient
##pale
priori
continuare
prezenta
ze
considerare
gaz
##stina
institutiile
##lav
arest
dim
natiun
acestuia
fil
corupt
protectie
balcan
cultura
observ
oct
exprim
ingrijor
conditiile
chestiune
investitii
efectu
2020
tax
octomb
octombrie
coez
supl
recent
locale
consult
##dera
##bilitatea
incuraj
ni
##ett
vorba
##les
punerea
partidului
tineri
##izarea
ileg
propunere
adoptat
mentionat
inalt
##ka
anu
niciun
pregat
modul
centr
presa
apri
considera
turciei
som
##mar
medic
dlui
funct
##uirea
supliment
##dam
reus
rev
trecuta
marti
contra
astept
serie
gran
fort
viitorul
inchei
##amant
comunic
referitor
necesara
produse
relatiile
pac
##vegh
acordului
lid
solicita
intention
regim
##sei
supravegh
gasi
##iembrie
noiembrie
prevede
pachet
##oasa
depa
conformitate
independenta
activitatea
ja
posibilitatea
facil
crea
cuvant
dispozit
##cluz
comerciale
urmatoare
elimin
aduce
##abila
25
##oarea
interv
reducerea
punctul
directive
##gin
##ola
vig
proiectul
14
conditii
decizia
##cis
angajament
conce
cerut
##itare
exce
preveni
recomand
lar
domnilor
biro
##vic
principale
recunosc
ple
##ian
eveniment
dat
hertegovina
arata
eficient
tine
lumea
toata
hot
urmeaza
utilizarea
final
infiint
monitoriz
locul
presedintia
##car
concure
participa
semnat
curand
trafic
##ges
##ensi
complet
numarul
doamnelor
##ionale
contribut
##oz
##etty
getty
##nice
##landa
brit
##itul
##arta
solutie
lipsa
##itar
pur
convin
adoptarea
##ig
ocaz
##struct
noul
inceputul
images
##ime
bugetul
alegerile
##oara
anteri
##cri
cuv
pristina
mic
dese
ordin
desfasur
marea
##alizarea
securitatea
uman
##carea
doreste
corespun
aprilie
crime
primit
servici
britan
permit
programul
lucra
strategia
amenint
ten
compro
afirma
##iaza
##gn
imedi
subliniez
##iunilor
echili
##anovic
##denti
joi
##siuni
principal
geor
##zil
cuprin
infra
##aturi
##lal
##und
libertatea
##oace
obiectivele
negocierile
##izare
administrat
ir
verbal
iul
incheie
propriet
ajunge
##vanta
administr
##forma
cetateni
producat
disponi
##anele
pace
##vers
ceri
apel
economiei
za
##co
republica
abordare
cresc
anuntat
discutiile
femeilor
destin
jude
forma
condam
##itor
atentie
multum
dove
inaint
##esion
##onia
actuala
##cident
dezbaterea
mijloc
acordat
vedea
reforma
iulie
preoc
vre
ciuda
expert
##plom
diplom
sase
atentia
##deauna
deplin
sustinut
internet
profesion
obtinut
jurid
procesului
##operi
luat
ajutor
vigoare
anim
concluz
publica
sca
febru
opinia
##entiale
februarie
##grat
fact
tratatului
cursul
randul
afara
regiunea
cara
imbunatatirea
multa
necesitatea
sk
##dei
conduce
evident
##ogra
##sului
oric
domenii
prezentat
prem
economia
contribui
votul
2007
energetica
cheltuie
septe
##elles
univers
reusit
calea
##asa
membri
compromis
##erat
decizie
septembrie
aeri
statului
ajuns
construct
obiectivul
##iera
atra
accept
exprimat
initiative
transparenta
cercetare
relig
sistemului
intampla
aloc
##istan
##ans
front
summ
18
trece
anume
legislatia
risc
##dar
27
##stiv
presup
respin
##rale
ultimii
##lande
##sesc
persoanelor
carui
devenit
valori
singura
numeroa
potenti
externa
stimul
castigat
##atat
defin
deschi
unii
fondurile
experi
eforturi
brux
rezultate
adres
##ermin
combaterea
mediului
van
##rog
secret
asigure
mondial
bruxelles
aplica
rea
##bilitate
subliniat
actuale
##gi
13
##itoare
specifice
pasa
intra
export
chestiuni
schimbarile
centrul
17
##icip
mode
articolul
regulamentul
consolidarea
ferm
deleg
cazuri
progrese
##ional
##ob
contro
asc
deputati
muncii
recon
##ural
fondul
corespunz
negocierilor
intermedi
singur
##ama
##ntelor
simplu
prioritati
##otdeauna
scurt
poziti
consiliu
consumatorilor
conferinta
execut
bani
festiv
##oarte
strategie
mesa
ecolog
vice
##icit
integrarea
caract
##alizare
insi
ceva
institutii
2011
banca
cine
aten
fim
##nii
vin
servicii
##elui
exclu
##fa
explic
cip
competitiv
preocup
influ
##cursul
vest
altor
##lalte
lua
promovarea
scaz
structura
##jul
##vaz
ajutorul
##eama
ach
##nica
intotdeauna
##inica
acorda
contextul
rezolv
pregati
explo
accesul
adre
##isti
refera
ren
fonduri
##rele
modern
##volut
##ierea
confir
uniune
adaugat
urgenta
dezvoltarii
solutii
uri
sarbi
discutii
responsabilitatea
oficialii
asoci
##uze
barb
puternic
coeziune
fran
##enilor
intensi
turc
altern
er
gas
sanat
##nic
autori
faptului
identi
difere
serviciile
noile
pus
##lib
cooperarii
autoritatilor
16
##dici
ambele
urmari
##cra
red
avert
produselor
##hi
proiecte
skop
curtea
discri
absol
animale
finantare
nea
totii
alia
contract
presedintiei
elector
asadar
minoritati
asiguram
acolo
centrale
valoare
des
apoi
energiei
somaj
discrimin
instrumente
constituie
##ficat
energetice
vrea
dur
comb
ultimul
indic
##ugos
regionale
jum
clari
putut
gand
condamn
duminica
membrii
determin
tar
iugos
spati
intentioneaza
##apta
aceeasi
text
confrunt
post
persoanele
liderii
cru
sai
viet
departe
dificult
comunitatea
nationala
aplicarea
##data
diver
include
##ovski
refug
stabile
substa
um
vol
##oli
terte
buc
planul
ultimele
sen
drepturi
nimic
crimin
mondiala
dintr
declaratie
##alitatii
consti
##oiala
banci
##iri
iran
consta
jumatate
femei
operatiun
rezolutia
folosi
lucruri
industria
stri
incheiat
##orde
struct
distru
bo
realizat
bilater
ris
##lant
##ocmai
##iene
stran
2006
actiuni
dra
dub
##uk
##alit
saptamani
##rael
conflict
##erea
israel
albanez
##diu
perspectiva
intermediul
sl
paci
asteapta
introdu
civile
criteri
joc
##do
imprum
turis
centrala
##ism
impie
##dine
crit
##rana
statul
##gem
justitie
##arca
jurn
##itam
vizita
contribuie
fer
ucra
rezultat
democratice
reflect
interna
veri
ridicat
varsta
sprijini
interi
prel
##lul
deveni
cale
propus
intreprinderile
populatiei
acorduri
suficient
prioritate
naturale
##inteles
stan
simil
tranzit
50
perman
institutiilor
stiu
printr
personal
bloc
mana
revizui
teroris
##cie
referi
stabilitate
major
vech
judici
rezultatele
##ska
##icul
sedint
auto
cunosc
reci
2004
sep
##bili
ung
sec
azil
tocmai
sarc
##stat
##ficate
presedintelui
##kovic
sus
exerciti
finantarea
gaze
defic
rele
refugi
resurse
retele
##of
##cani
##xi
comunitatii
parteneriat
decis
##rak
afirm
insta
securitatii
serviciilor
purt
inse
rapoarte
##inei
##ficare
imprumut
intalnit
echilib
##ev
agricole
mijl
cuvinte
devina
luate
tribunalul
##atiz
macedone
pacate
can
cheie
##izit
aflat
vrem
standardele
vecin
niciodata
##gere
seful
germania
implementarea
lin
politicile
provinciei
rat
##entii
simpli
zece
##siunii
bineinteles
stii
langa
agricultura
mijloace
##ierul
recipro
except
practica
##gen
duce
violenta
deosebit
##bul
arg
tradit
##curs
balcani
achizit
cump
bugetului
introducerea
forta
existat
react
petrol
##dul
##ieni
discuta
copiilor
inchis
##dict
ash
regre
nucleare
fostul
elib
practici
masa
suplimentare
pozitie
##vada
restri
fav
cif
depl
implica
numeroase
necesita
amp
##entele
sarbe
mer
treilea
hotar
bulgari
incerc
solidaritate
irak
invat
lege
rezultatul
cauz
fondurilor
majore
cipri
produsele
respectarea
cheltuiel
##inde
intreprinderilor
colabor
##gust
interesul
excele
##gine
mone
instit
fir
##fera
companii
semnificativ
imediat
croat
materie
esentiala
atac
21
##ard
cart
plat
indoiala
regiuni
exam
scri
existente
circul
##gori
credit
##dia
##rarea
sector
relatiilor
ambasa
armate
ideea
skopie
democratie
tere
ent
plani
resurselor
evaluare
##sibile
curtii
##bi
100
pens
##crete
continue
avanta
element
numara
##ateasca
exact
datelor
pozitiv
italia
actiunile
fmi
religi
august
vineri
puncte
primi
lunii
regionala
##ote
totodata
##itelor
pierd
##ievo
incredere
politie
decizii
mobil
oferit
compania
populatia
negocieri
saraievo
datorita
total
##ida
china
limit
meri
sof
agen
vizit
refere
durabila
organizate
lista
investig
grave
##erului
vizeaza
respecta
##izat
mla
celelalte
24
femeile
den
coalit
legislatiei
adoptate
interz
macedoniei
##terior
asigurarea
puternica
##lam
sport
juridic
vaz
situatiei
interesele
urmatorul
impune
critic
angajamentul
crescut
solicitat
ofere
lea
premi
strategiei
facute
progresul
##ou
##urala
permiteti
seri
##sea
##sam
dj
ambiti
terori
obsta
legea
principalele
cresterii
directia
estim
obstac
##reapta
oamenilor
indifere
eficiente
dimen
atena
medit
strict
globala
aman
##lexi
##ung
sectoare
armon
teme
posibila
##dz
accent
felicit
extra
referend
susp
referendum
apararii
comertului
cam
ie
asum
capacitatea
zagre
##mit
resursele
mediter
mine
diviz
seama
comisarul
societatii
23
organizat
rata
putere
croatiei
slov
ministerul
ordinea
politia
ultima
tadic
##vidu
individu
principiul
nik
##gia
##structura
vorbim
imm
societati
reprezentantii
fis
sanatatii
##nei
echipa
mijlocii
##icale
dovada
##ante
incearca
agentia
puna
alimente
reut
puteri
activitatile
directivei
bucure
prevaz
distrib
remar
democratiei
liderul
lucrurile
aprobat
##entelor
roman
integra
libera
garanta
limba
situatii
capat
evolut
##uro
statutul
flexi
zonele
mei
reglementare
cladi
franta
luam
sectorului
abordarea
##iesc
prezinta
pra
##arz
carora
haga
real
reala
vorbit
integrare
sue
intrebarea
teritoriul
exploat
##usul
jucat
##unda
parlamentare
justitiei
maritim
lucratorilor
##ud
condus
40
une
2005
context
clara
cipriot
##atoarea
fal
inloc
intrebare
experienta
global
invit
barros
barroso
educatie
formul
militare
alegerilor
insul
apre
schimbarilor
destul
rezer
preci
##uale
respectiv
politicilor
reuters
accele
radi
pescuitului
veti
unica
careia
media
rs
organizata
pari
##one
vicepre
globale
##amente
intreprinderi
stiint
vicepresedint
rati
progres
legii
intalni
##old
economie
depune
slab
##ash
##ieri
comit
##urg
22
motivul
28
imparta
libertati
coruptiei
##rupe
##atisf
generale
sanct
indiferent
##jan
legi
limita
declaratia
vizelor
urmatoarele
alti
adecvate
##ntii
stabilitatea
mii
zagreb
##dep
existe
carb
reforme
intampl
vit
altele
detine
reducere
controlul
##opte
jurnalist
propunerile
afecteaza
culturale
totul
stabilit
afp
##ismul
grupuri
analiza
##engen
mond
participat
##ima
bugetare
france
os
energia
sex
schengen
##olului
crize
sigur
sarcina
prime
adesea
usor
clare
sprijina
mondiale
##stici
sloven
##rontal
##ogan
comercial
acele
discutat
transfrontal
opozitie
##ulp
declaratii
consecinta
ank
evenimente
pietele
statutului
##rov
comand
monet
introduce
odata
reformele
##ionala
intrebari
redres
orasul
discutiilor
suver
anual
tin
fab
justi
publicatiei
coment
companiile
activitati
implicate
juridice
##ise
permita
adoptata
stud
sansa
cant
argum
##unde
discutie
apart
relatii
banii
##siunile
eliminarea
vul
chestiunea
greciei
lumii
structurale
finaliz
investitiile
zone
maine
inregistrat
american
regiunile
feder
summit
locuit
absolut
dificultati
uci
africa
refuz
profit
fondului
##rata
aleg
inche
macedonean
bra
kur
incheierea
pib
transform
repet
judecat
##diul
organizatiei
2013
prelu
bilaterale
profes
promis
politiei
majoritate
iv
inac
provocari
asteptam
500
salv
incalc
teren
##orte
para
aspectele
##sat
cana
fortele
##tin
islam
irlanda
vietii
26
nevoia
inculp
degra
tirana
stabilirea
##com
dnei
##ero
socialist
republic
##che
calitatea
kara
##vet
ocu
saraciei
portug
degraba
deschis
materi
pact
plati
istan
fiscale
presei
concurenta
iugoslav
istanbul
costurile
pasageri
adresa
adun
complex
man
sr
crede
functie
##enite
adopte
bancii
omolog
masurilor
dificil
partidele
legislative
vanz
concrete
esentiale
pierde
##oris
productia
##itudin
ah
lov
##ationale
anterior
conserv
adecvat
bucuresti
##uite
magh
libertate
comertul
acordurile
romaniei
mor
principala
realiza
programului
rapida
frontiere
sent
resta
problemelor
infrastructura
boris
erau
vorbe
retra
discutam
stabilite
vazut
transmite
beneficia
incepand
##iza
past
grec
echip
rein
fot
maxim
stoc
stati
sold
salari
dreptate
supraveghere
caruia
puse
adopta
nimeni
satisf
cerem
##stro
programe
domen
mesaj
eta
##ai
##bo
##ram
alaturi
generala
intarz
demonstrat
larga
priet
speranta
mladic
edit
autom
oli
dus
ucraina
speram
dificila
principiile
colegii
##uc
##enha
intrarea
erd
impied
##itarea
copenha
eliber
bulgariei
copenhaga
consideram
cererea
mecanism
influenta
##sim
abuz
durata
aratat
##erabile
impactul
sapte
acelea
ep
ream
domnul
fisc
acesti
propriile
pacii
depuse
cativa
##fe
dreptului
libert
greu
belar
calatori
don
sine
bog
depinde
participarea
ocuparea
reale
dorit
##fect
acorde
##alii
credi
lucreaza
proiectului
vam
aca
productie
pericol
obiectivelor
posibile
vota
##relor
##urat
ankara
libertatii
legat
##aza
suge
extindere
##sive
multor
responsabilitate
agenda
cot
privatiz
proteja
democratic
civil
realitate
acoperi
scazut
colect
erdogan
pierdut
sce
realizarea
serioa
##izeaza
incant
biroc
tratat
nucleara
##ip
inaintea
pred
preced
##urarea
vad
ramas
protejarea
imigra
procedurile
##rez
unit
traficului
separ
comitet
armata
##ziu
datoria
ign
29
tan
const
majora
afectate
stiinti
nat
analist
alimentare
societatea
existenta
##seste
secretarul
capital
##ope
local
transportul
copiii
gestionarea
##bor
stabili
dispozitie
procur
mediul
##ban
origine
stanga
minoritatilor
asocie
##grului
ine
extinderea
##het
locui
##ria
guvernele
comunitar
raportor
perspective
09
contact
accepta
##tare
##rice
respecte
semnificative
pozitive
etic
##ner
suma
##oaca
muntenegrului
intamplat
republicii
ese
normele
lansat
##cil
cunoaste
caut
anii
art
raspunde
propuse
##dzic
dezbateri
ro
marii
jap
minori
tarziu
##fon
persoana
agentiei
terorismului
musul
##itudine
##reme
fosta
pun
descoperi
apa
im
privitoare
iz
nordul
propunerii
obiect
obligatori
elaborat
ocazia
stiinta
merita
##sin
convenit
##cesti
pedep
opri
ste
##ntilor
infract
imbunatat
alimentara
mani
##ficata
prezid
schimbare
ungaria
em
presupune
##itie
turci
aero
fre
ridica
##oran
credem
##met
temp
kosovari
albaniei
subliniaza
adapt
trebuit
increderea
natiunilor
pil
##ismului
temei
04
raspunsul
deschide
mat
##lui
primele
regen
actual
mele
infiintarea
domeniile
##itele
oficiali
parerea
benefici
vote
casti
amint
regulamentului
##rare
municip
consolida
legislativ
corespunzator
prioritatile
##usti
legit
interpre
economii
sarba
aceleasi
##uala
tranza
##alizate
corecta
cuvantul
raman
somajului
ero
premierul
examin
exemp
straine
05
##siva
principalul
oare
preturilor
larg
03
austri
##mise
utilizate
evaluarea
consecintele
dialogul
indrept
norme
campan
ambasad
strain
belarus
centru
mica
societate
bucura
grava
ridicate
indeplini
olimp
coere
afgan
caror
umane
depus
ramana
deschiderea
60
bari
since
democratica
aprobarea
traiesc
creat
##alele
reformelor
consumatorii
usd
informat
grav
ashton
crestin
colegi
bulgar
pericul
cert
intai
specul
practic
rating
##cid
spera
transfer
criteriile
dea
##fer
into
ului
dezast
calific
precon
echita
bazeaza
cole
parere
comandant
drum
##ienii
06
unice
evita
norm
egi
civila
##uga
directorul
##entilor
detinut
kost
private
vedem
orasului
gestiune
lide
energetic
etnice
antre
guvernanta
mandat
##alizarii
activitate
balcanii
##ki
sprijine
sistemele
permis
electro
sofia
dreapta
##cta
meto
##oda
mentinerea
initial
victime
##isn
problemei
tendint
##nteze
televiz
serios
competenta
osce
be
##stal
prot
calcul
obtinerea
rad
informare
sug
minim
31
trupe
##sic
categori
film
mal
irlande
##dele
autoriz
inaccept
rog
speciale
descar
legislatie
deplina
mit
##ad
elaborarea
##pul
produce
occident
07
rut
##seze
schimbari
altii
cotid
ak
##atelor
##itara
zonei
ocazie
promova
cuprinz
tun
industriei
aflate
camera
cultural
inteleg
##ginea
semnal
2012
adus
disponibile
elemente
natiuni
anticip
punem
aparare
medicale
administrative
model
##zon
schimba
reusi
contine
determ
detali
puternice
depend
cit
##erii
##rid
confruntam
ident
##arce
sustinerea
asociere
citat
membra
##forme
sco
dorinta
prezentate
serviciul
##uita
impozit
bucur
tehnice
corespunzatoare
suspend
tratament
suveran
##zeze
rezolutiei
##ft
##kovski
##ierii
cerintele
tranzact
vreme
anti
vechi
piete
imigrat
valorile
sanatatea
recunoscut
migrat
spani
rezolutii
fundamental
##cire
##cit
08
##anul
##cro
parcursul
pale
legata
coordonare
celui
integrarii
austria
bre
dru
continut
samb
rau
avans
veh
mass
##vizion
competente
monitorizare
uitam
sprijinirea
considerat
strategii
standardelor
albanezi
infrastruct
cure
produs
propria
belgradul
compon
2003
efectele
companiilor
deputatii
simt
ran
##ict
regiunii
incercat
administratia
##islav
avantaj
circum
protoc
son
puterea
functionarea
mandatul
proceduri
juridica
misc
elim
turist
lider
anumitor
tinerilor
aeriene
##ss
urmatoarea
patri
prevenirea
singurul
rehn
buge
atlant
amendamente
ulterior
reprezenta
caracteri
rasp
organizatii
standard
pachetul
##ich
consens
##be
partile
informatiile
militara
principiu
solicitam
ascult
bei
##jic
efe
organizatia
sambata
##line
misiunea
rezolva
volunt
##samb
##cand
trai
##ok
indust
textul
vine
stiti
kosovar
prezinte
demonstreaza
ansamb
conturi
ajust
##reasca
pag
suficiente
ore
ali
impiedica
exercitiu
jur
investitiilor
consultati
##fi
acordarea
guvernamant
echipe
repede
stie
spania
efica
integ
##arma
presus
sursa
noilor
retea
crima
mold
##apa
companiei
trimite
fortelor
conditiilor
restrict
##intesc
proiectele
petre
moneda
interzice
afganistan
tab
electric
emisiilor
drog
subv
eforturilor
locurile
democratia
functioneaza
obstacole
proport
aprovizion
plen
numi
##artea
sprijinit
bugetar
trimis
amendamentele
finala
ilegale
reflecta
##ciu
radic
implicarea
tinere
##arit
mijlo
adecvata
##sm
instrumentele
revizuirea
dovedit
barbati
egipt
##elig
raportorul
noului
scur
directe
oportunitati
solidaritatea
omologul
guvernament
recunoasterea
##vara
ministrii
solutionarea
cipru
##alitati
organis
moartea
summitul
individuale
grupurile
aderarii
popular
##ieze
##onom
oficiala
ong
lucratorii
pozitiva
poporului
similare
col
contribuit
##sirea
incheia
pod
programele
##ox
speciala
ziua
##oreze
animalelor
gene
##git
ajunga
puteti
libia
asasin
flu
##urale
diferitele
atrag
recente
acea
strategic
deciziile
not
arme
poporul
surse
proprietate
religioase
rezerve
macar
##isia
##ficiale
voturi
victimelor
concept
vointa
istoria
britanie
##zilor
contribua
frecv
cata
restul
##atorului
ber
respins
numit
intelig
respective
reaction
ocupa
mijlociu
dezvolta
indeplinirea
atrib
bunast
mu
del
pietelor
sensibil
aliantei
scrise
cab
vecinatate
vie
indemn
srp
and
regimului
vec
oportunitate
fen
##unica
negociere
regional
contributie
destinate
sonda
urilor
peri
afric
##bre
##pi
unic
intalnire
bol
go
tema
polu
comport
autonom
armatei
##mik
contributia
alianta
etichet
prag
celei
altfel
revizuire
##kistan
dedic
##arului
privat
activitatii
independent
lansarea
candidat
kostunica
directie
releva
valoarea
lovit
activitatilor
aud
##itia
unmik
scara
granita
aerian
intalnirea
forum
cheltuielile
vla
organizatiile
sistemelor
##lova
expozit
culturii
tit
##ven
ceha
obtina
reprezentantul
avertizat
##ovanovic
acordata
inceapa
continuarea
educatiei
rurale
vala
reform
agricola
sustinem
optim
sh
##stele
polonia
adj
membrilor
circulatie
legal
indeplineasca
efectuate
castiga
durabile
##ograf
uneori
slovenia
##zat
libere
tinerii
##val
aviz
80
crimei
2002
35
elab
obisn
opozitia
traficul
excelenta
bh
por
##uat
##sten
folose
partenerii
cunost
birocrat
aeroport
devine
potential
ara
inteles
deosebita
numarului
taxe
cotidian
##zii
##ionat
obligatia
totala
implicati
1995
##terii
sprijinim
bise
exprima
aflam
##bat
ned
impart
drumul
##oul
depart
ministerului
difici
performa
bazata
dificile
sute
criterii
scol
incet
##ku
promi
organizarea
##bit
ecologice
suede
pros
semnificativa
confirmat
telefon
orientul
km
##ritate
abt
sisteme
reciproc
joaca
diverse
##rati
impo
##istii
intregul
##ational
inchisoare
determina
##ateste
##ual
macro
alat
greci
protectiei
reglementari
penal
negoci
atinge
srpska
ofit
mentionez
experti
neferi
desfasoara
##itudinea
##ck
comunitare
incerca
imposibil
construirea
specific
sos
plata
reprezentat
via
copil
violentei
stricte
kar
##sch
domnului
noii
fru
##cea
##raj
pregatita
auzit
##oarele
planului
nep
negativ
1999
militar
reduse
victimele
enor
seara
urmat
finantelor
atingerea
vreau
mediterane
intrun
evenimentele
urmatorii
incluz
competiti
profesionala
constienti
litu
mis
german
fenom
forme
provocare
##las
indea
razboiului
tranzitie
amendamentul
suspect
legale
dav
schimbul
sarbii
inaltul
acuzat
riscul
premiul
slova
##kk
raportoare
##entiei
publicat
documente
inchi
fiscala
asp
studiu
evenimentul
constructia
##ove
devreme
respectiva
moldova
interese
bosniaci
victori
capitala
publicului
competitivitatea
preturile
autoritatea
cance
adjunct
dezbaterii
##alal
reconstruct
02
putine
pad
conventia
continuam
pretul
inaug
independentei
strainatate
urile
simb
afere
inap
reguli
temeiul
ofer
gestionare
ilegal
intoarce
##stei
##clus
apara
##iteze
consumatori
consecinte
redus
critici
cunoscut
##orabil
nevoile
conflictului
incercam
aveti
bosniac
completa
bosniei
grupurilor
carbon
non
deloc
2001
deputatilor
eule
egalitatea
partidelor
regimul
monitorizarea
eulex
suferi
##ilal
creeaza
costurilor
##atic
utilizarii
deschisa
##ington
adaugand
subiectul
nikola
sanctiuni
expertii
tehnologii
anterioare
dun
discurs
beneficii
intregii
obligatiile
folosite
producatorii
aline
muntenegre
lungul
formarea
incuraja
dezastru
serviciu
tempor
actioneze
georg
kfor
tha
tole
documentul
ru
div
##inda
locala
administratiei
wash
impuse
format
stabilizare
facilita
regret
argument
washington
##vale
investi
vara
##cun
milose
punctele
colegilor
trea
straini
##ron
came
70
ministrului
micro
carte
##rei
combatere
spunem
ax
##mentul
sporirea
medicala
costa
adica
mentionate
akp
inapoi
oficiale
garanteze
grese
incluse
salutat
judiciar
karadzic
ka
ope
ros
capt
decide
idee
constitutionale
convins
oricare
spatiul
intrat
regiunilor
guvernare
sufera
diferit
telecom
musulm
nr
##scu
surprin
taxa
permanent
sind
##bilitatii
##uiesc
##dare
folosit
japonia
modalitate
verde
merge
##ieste
##urare
realizate
actualul
ig
afacerilor
reprezentanti
estul
provocarile
potentialul
divers
planurile
globalizare
alternative
refugiati
300
luata
pap
##ler
indica
aborda
desfasurat
concurentei
inovare
cheltuielilor
##alizat
detin
eficientei
condusa
stabileasca
feri
muz
##oreaza
angajati
demonstra
milosevic
conducerea
complic
agriculturii
economiile
politicienii
festivalul
ansamblu
2000
interdict
acordurilor
raportorului
creeze
regatul
totalitate
viza
metoda
echilibru
##rt
functia
contribuabil
las
##scri
precedent
active
faza
##oarelor
refer
participe
ciprului
calitatii
conditie
izol
proc
##sh
##sita
negative
populatie
idei
portugalia
grat
log
tinut
acordam
scand
198
reuniunea
recenta
insist
bancile
pensii
pkk
digit
inchisa
critica
stiintifice
catastro
invatamant
raspand
intereselor
educ
simbol
##izate
stirile
corp
etapa
mandatului
umanitar
dezama
ajung
partener
independente
nave
brut
zoran
##guri
spatele
votului
stabilitatii
informatiilor
furnizarea
atins
90
##istenta
vizitat
cercetarea
procedurilor
lucram
dezvoltate
##proape
stabileste
automo
indeaproape
dict
##vac
relevante
inund
##gerii
normelor
deputat
redresare
##ntul
avoc
afectat
naste
coordonarea
canada
gazdu
instal
##ins
comise
afecta
circumsta
datele
g20
sre
##nici
democratilor
transfrontaliere
bil
##atiune
aband
angajamentele
cabine
bat
##iev
principii
frag
restruct
accident
cazurile
includa
programelor
##ideze
iau
##viet
presiuni
termeni
supraviet
dam
strategice
utilizat
impactului
educatia
azi
sunteti
primeasca
chestiunile
##isi
uni
britanic
indo
legitim
##lat
viitorului
prelung
aht
dia
dimin
semnarea
##isaari
##lici
transportului
reduca
rezolvarea
mijloacele
we
##colo
sot
demn
inalta
##inerii
apararea
actiona
central
fug
avi
locurilor
vina
##irii
coruptie
maghi
ajustare
chine
accesului
modificari
tribunalului
balcanice
scut
considerabil
arun
electrice
opozitiei
incon
acelor
superi
ahtisaari
hand
##anov
medicament
disponibil
cineva
ajute
procuro
sarace
interesate
pakistan
amenintare
##reu
##ien
comparat
croati
solicitarea
diplomatice
elimina
industrie
01
oh
cifra
criticat
stransa
lunga
coope
cauta
insot
modificare
gol
companie
pusa
##atica
treia
##unerii
fundamentala
cercetarii
##rija
constient
sedintei
beri
##moni
##itii
dincolo
primului
daun
imbunatatire
oferite
corecte
tehnologie
tinand
interpret
aplicate
agentii
pregatit
reconcil
##sez
dos
institutie
comunicare
exclusiv
brazil
exprimare
pregatiti
rot
oras
productiei
spatiu
deficit
droguri
asigurari
indepline
reveni
bariere
##site
comerci
gaseasca
##ordin
serviciului
atras
crucial
ieri
##aliste
radio
ignor
pastra
proiectelor
formare
legislativa
atrage
regreta
prosperi
aduse
vorbesc
statistici
bus
##urit
##ficam
##gaz
1990
conducere
prevazute
fiz
acordate
incalcare
desemn
teroriste
##iasca
incercarea
executiv
ol
inut
dista
misiunii
sarcin
infl
expres
anumita
supravegherea
concluziile
sondaj
fenomen
rate
explicat
##ilalti
##han
carei
ceilalti
salarii
combusti
serioase
sosit
##rop
intentia
spit
oferim
matern
inacceptabil
cut
gul
procent
plateasca
scena
componenta
trept
##ficarii
includerea
responsabile
patrimoni
acel
continent
frontiera
comentari
votez
##unic
##matica
mosc
festival
##bel
##50
reporte
schimbat
sindic
nereg
dispune
angajat
emisiile
nefericire
fiecar
liberalizarea
arestarea
##bet
ministri
costuri
fiecarui
vuk
##mor
unan
##istilor
garantarea
alegerea
opune
sigurantei
geogra
succesul
infrastructurii
itali
permanenta
incapa
solutia
sporita
blo
##izarii
##icei
teat
bugetara
lucratori
constant
##rist
##alelor
gasit
drag
##ase
##ns
##gel
mereu
rusiei
stiri
america
adaugata
grea
compar
dure
considerata
##siunilor
facuta
##sescu
turism
juca
planuri
proprii
bunuri
dimine
gasim
george
ivo
investe
tem
bazate
actionam
legaturi
actiunea
strategica
croata
transmis
vehicul
abandon
trage
deciziilor
gandim
interiorul
iugoslavie
##kov
spi
competitivitatii
satisfa
muncit
basescu
gasirea
pacientilor
##oveze
fostului
discursul
universitatea
##go
adresata
##delor
dau
turca
niveluri
hertegovinei
apropiat
##ju
punere
electorale
extraordin
##psa
obicei
croate
georgia
sugereaza
lat
dezval
test
extre
egal
declarand
vizitei
organizatiilor
disputa
dimineata
##resc
adera
sche
opinie
deschise
obligatoriu
cerere
##econom
coasta
suport
pedea
descris
caracter
pedeapsa
##lis
surselor
studii
ambasadorul
adere
derul
judec
ppe
cream
nivelurile
insu
cas
##amentului
albaneze
ecologica
automobile
##enind
spiri
contr
depuna
liberal
inspect
atacuri
utilizare
electricitate
ameli
motivele
regenerabile
tva
dob
lucreze
ton
intoc
urmareste
agricol
parteneriatul
##omp
domin
intervi
mesajul
combin
##mita
alocate
iugosla
refugiatilor
muze
lectura
comunicarea
turismului
flux
lect
conditia
promoveze
lumina
incantat
cli
imen
presiune
impul
event
saracie
##igu
factor
foc
regist
##ationala
grad
principiului
pasagerilor
bur
suferit
aplice
carta
imbunatateasca
suficienta
tent
##tului
anchet
vize
student
alternativa
coerenta
vari
conc
forte
biod
reformei
implicat
industriale
adevarata
declaratiile
profesionale
intelect
intelege
dialogului
sana
def
incident
inclus
modificarea
hotarat
telecomunic
##dp
##ensa
perse
mentioneaza
venituri
agentiile
##no
##uire
auste
adauga
ocuparii
##sman
meci
desfasura
plas
urgent
adresez
parlamentar
marca
acceptat
campanie
comparatie
##omet
##vesc
aborde
sarbilor
alineatul
jovanovic
##indu
##cte
apare
sentiment
sugerat
dezvolte
interesa
campania
##enita
ital
creasca
tom
##ya
voj
redusa
coruptia
jurul
##ciun
denum
##vin
##cile
vorbi
haiti
sanader
origin
term
regulile
##ideti
anumit
procedurii
soldati
reporterilor
india
inregistrate
##aga
##ctice
transporturilor
recomandarile
renu
insemna
dimensiunea
srebre
dinam
crearii
familia
ho
casa
aur
##pag
responsabila
insista
##mir
##chili
turcesti
curent
##uiti
eur
ilegala
multumit
reda
##matic
haideti
concentreze
referire
spiritul
luarea
adoptam
activa
mile
runda
paras
condamnat
cuprinzatoare
vand
mecanisme
pension
depasi
az
rro
##gu
##ptele
defici
arh
incalca
rit
tay
aparut
refuzat
acte
finantarii
albaneza
##pren
alternativ
##ritatii
##alitatile
rob
postul
profita
conflictul
mentinere
obtinute
colaborare
handica
biodivers
##sen
##alizata
schimbarea
intelegere
iesi
efectuat
subvent
actiunilor
partial
vinov
##evski
hart
propriul
arestat
co2
importanti
familie
inovatoare
jo
##arm
guvernelor
bancar
bazat
analizam
relu
scru
asistentei
recunoastem
eficace
pan
internationali
solicitare
joace
##zie
##bur
cetatean
viitoarea
descarcarea
comisii
medie
substanti
handicap
ip
consolideze
specifica
emisii
simpla
prieten
audit
sustina
concentram
ineg
##son
parlamentara
includ
solicitant
astepta
procurorul
dan
olande
init
##ceva
publicul
judiciare
rapoartele
tina
##ji
sigure
obligatorii
distin
balcanilor
ambitios
vamale
dependenta
srebrenica
tort
realitatea
diferita
datoriei
teritoriala
ingrijorare
##ntiale
##uiasca
decenii
biroul
scadere
monetare
acasa
antrepren
##opera
efortul
cerinte
determinat
jos
##fest
deseurilor
concret
nes
provocat
##stica
submin
##lah
impiedic
thaci
dezbat
anivers
ordine
aduca
lit
veni
incalcarea
aprecie
reamintesc
folosesc
vizi
apropiere
intari
comunitatilor
perspectivele
##seasca
unilater
set
ajutorului
##nit
##rest
##opol
feg
garantii
pregatirea
ict
mort
familiile
monitori
primesc
pactul
lideri
##wn
colab
mentina
infiintat
combustibil
propun
misiune
elvet
cuprinde
mobilizarea
tayy
politicieni
orase
deficitul
sudul
consecv
exemple
sanse
online
furniza
esec
tayyip
##gane
##atesc
##oasca
recep
concluzie
tolera
fat
menite
controvers
textile
##cam
ingh
respectate
foloseasca
festivalului
introdus
inconj
contrar
reit
new
subsi
diferitelor
academ
tunisia
licit
##teze
##omin
modului
felul
zeci
omb
imple
beneficiaza
factori
premier
trecere
simplificarea
distribut
ben
##xic
centrului
progresele
campion
ombud
folosirea
bloca
gruevski
extinde
aduc
granitele
francez
compens
prezentata
ulteri
supuse
somajul
nikol
vital
##rin
comunitati
sublini
imbunatatiri
icty
poarta
scoala
##oca
##ias
stabilim
inaintat
reactie
##cidente
televiziune
unanim
ombudsman
lond
rurala
##uis
forest
asume
explica
destinat
vulner
continutul
##pii
##iel
lasa
preala
perfect
raspunda
diferenta
insufici
punerii
##ed
prizon
genoci
place
pacea
guvernamentale
niste
##zator
votarea
evidenta
inchiderea
##jana
delic
patrul
stau
achizition
evenimentelor
preconizeaza
nera
desfasurare
##kh
revolut
progresului
discriminare
##ierilor
gresit
efecte
scopuri
transforma
electorala
obstacol
comitetului
gal
##ber
indel
gaza
doamnei
##nan
minime
oportunitatea
vecine
zbor
##icule
##enim
neagra
tendinta
deze
saluta
aflata
accepte
familiei
dezechili
##au
specta
altceva
tehnic
frau
remarca
miscare
recup
balt
spirit
cari
proteste
principiilor
medicamente
purtatorul
sectoarele
normal
asia
locali
organizatie
respectul
reglementarea
cra
##citatea
##fir
##iinta
diminu
ire
luand
dispar
comerciala
documentele
sugest
redact
nerab
indelung
implice
atitudine
rezon
credite
pozitii
saracia
veniturile
constitutia
americane
lucrarile
maritime
periculoase
efectiv
uz
aparat
##ovan
adri
1992
opiniile
confirm
salvare
##asi
competentele
afectati
instituirea
brazilia
interviu
teama
guverne
vicepresedintele
rug
##zile
##inele
vizite
felic
egalitatii
##itei
##uim
sesiune
acp
partilor
##ologice
reduceri
exercita
apropierea
recomandari
structurile
manifest
opun
tehnica
promoveaza
conferintei
dovezi
ratko
reciproca
sto
##vizi
indepart
austeritate
gande
##nerabile
##stini
multilater
istoric
interventie
ambitioase
vulnerabile
400
##ira
##xe
considerate
articolului
imediata
gh
cealal
##imir
urb
relatia
director
##atiuni
turismul
cealalta
ruse
descri
estimeaza
igor
manu
obser
adresat
diversi
nic
propusa
autor
acuzatiile
concentrat
anuale
bancilor
##ont
##ter
##prem
arta
comunitara
imprumuturi
abordam
culturala
modelul
manage
impartasesc
cod
legala
valorilor
construi
prelimin
nem
ridicata
150
ocupare
umanitare
imbunatatit
merg
consolidare
stras
integrata
electronice
##eau
prezenti
belgradului
descoperit
persecut
emite
##izata
alocat
referinta
exceptia
revol
alege
liv
refuza
marf
reuniune
risca
sedinta
prezidentiale
coreea
concep
ajungem
bran
##clam
ministe
sarbatori
beneficieze
ingrijorarea
lice
murit
##uvern
##sel
ponte
depusa
responsabili
confirma
operatiunile
sincer
gar
ko
pasi
personale
ferma
##chete
imigranti
dezamag
emi
intor
##isp
##veh
protection
initiativele
valabil
##erare
acopera
interimar
nastere
lapte
dimp
grecesti
negli
disput
pescuitul
tipuri
dimit
libertatilor
aparit
capacitatii
suplimentara
exploatarea
alegatorii
maniera
tone
relativ
perioade
granitelor
volum
reteaua
scandal
organiza
facand
viceprem
reamint
coopereze
##gl
##oglu
sfera
##lobod
egalitate
slabe
beneficiul
numirea
cutrem
scrutin
##cara
termenul
observat
dispozitia
##rand
##mun
consil
acuzati
criteriilor
coalitia
serioasa
abtinut
lituania
##gii
##otov
necon
solana
utiliza
rapide
##nik
##finant
transferul
sustinuta
umana
monedei
coalitie
suedia
intalniri
neregul
celorlalte
concentra
prevenire
agre
acuzatii
personalului
omc
apropie
cheltuieli
autoveh
stea
povara
altul
rezerva
metode
generalul
utilizeaza
dezavanta
coeziunea
fabrica
privatizare
subsidia
##uind
atent
mix
recur
preocuparile
renunt
comandantul
preturi
petrecut
dimpotriva
fia
presiunea
anilor
belgia
noroc
mediterana
podgori
ham
star
impoz
rezistenta
viziune
romani
conflictelor
opinii
deb
##cipl
vac
modi
turce
directa
abordari
subiecte
scazute
editie
macroeconom
slobod
curaj
bazeze
##centr
termin
reglementarile
sensul
structuri
comitetul
bunastarea
##uti
aplicarii
protejeze
delegatia
discriminarii
instanta
tranzactiile
grija
tpii
articole
mecanismul
constitui
indicat
jocurile
##tar
##kic
obama
procesele
egale
atacurile
eliberarea
fl
deciziei
profund
corpor
75
jan
##ren
##izeze
pof
comunitate
nivelului
ajutam
multianu
accentu
och
inchide
carne
esenta
reuniunii
investeasca
dol
comunitatile
calato
colegul
##gle
##bb
impun
functioneze
costul
provincia
riscuri
insula
summitului
vojislav
the
avan
parteneriatului
indeplinit
obligatorie
liderilor
abordeze
##mos
abia
producatorilor
cruciala
vremuri
##jub
##vate
##rut
organe
islanda
absenta
prevederile
audi
votare
obtinem
intampin
apropi
rolului
salutam
cumparat
flexibilitate
ot
##uraj
demers
penale
##ienilor
slobodan
##ork
polon
pofida
diz
##amin
lemn
##ingv
raspunsuri
viitoarele
provocarilor
garanteaza
lupt
inceperea
operatiuni
##bourg
analistii
imun
##anului
##imi
adevarul
echipament
institutul
sedinte
firma
fotbal
amintim
##anii
impres
club
institutionale
realizeze
responsabilitatile
diferentele
apartin
oferta
romilor
scurta
cotidianul
londra
observa
ilu
##buc
##menta
##inile
depozit
numita
americii
asociate
##ulz
preju
##diului
depline
dane
gotov
iata
mut
##ger
##ys
economiilor
repetat
gotovina
##atea
##unerea
perce
reprezentantilor
cererii
riscurile
trupele
vaccin
dp
farma
##lit
##ritatea
inra
##vad
evalua
agricultorii
inaltului
modernizarea
vecinii
preluat
slovacia
cr
pt
##atlant
##isment
nec
mentinut
romane
faliment
pactului
credibilitatea
##uvernament
cadrului
soci
optiune
producatori
egala
violente
solidaritatii
tibet
adoptarii
reprezinte
197
istorie
inconjur
je
doban
luka
ort
belg
potriv
stipul
##jevic
constitutie
vreun
introduse
echitabil
preia
##cla
aproba
intelegem
##vig
lipsei
rezultatelor
posibilul
bazele
indeplinite
lich
finalizarea
tratate
boala
similar
masac
inghet
##carii
toam
christ
sustinere
evidenti
promovare
considerabile
ascun
societatile
strasbourg
neglij
sov
lact
##jevo
zil
aust
create
persi
inalte
oricar
cartea
obiectul
oricarei
regretabil
select
aflati
deosebire
italian
##quis
##rimentul
sah
##olm
schimbe
antic
teritoriale
facilitarea
45
##cic
promit
recunoasca
trip
nabuc
papand
mir
alex
legile
migra
detrimentul
cererile
cumpar
excelent
djind
ivan
echipei
nabucco
dec
reuse
sediul
starea
parcurs
tarif
spect
baze
protestat
macedonene
comisarului
beneficiile
cuvintele
practice
olli
##fuz
##icii
lupte
leton
scoli
cereri
principalii
intensificarea
fum
fiu
utilizeze
estic
instrumentul
ceremon
djindjic
tinta
repat
sprijinului
electrica
multumi
ortod
bro
cen
gri
##rici
arct
mesic
anuala
armonizarea
vorbeste
vet
alde
crimele
autoritatii
ofiteri
lup
tarie
ceh
decisiv
sublinia
incercare
clasi
modificarile
candidati
confruntat
greaca
##anti
consolidam
arestati
israelul
site
##ek
inev
alba
bancare
pierderea
deseuri
religioasa
gandesc
inevita
tro
preca
acquis
dovede
raportorilor
abordeaza
constructiv
facilit
comentarii
platilor
ult
trag
furnizate
materiale
pilon
##cen
stre
importurile
abdul
##ificare
restriction
bl
arhi
regiz
##aliza
finante
familii
electoral
libertatile
frontierele
toamna
esuat
ameninta
granitei
adresate
folosim
exercitiului
societatilor
regener
distanta
##zy
proa
nere
putinta
valor
afacerile
imbunatatirii
militari
democratii
angajamente
oricine
alimentelor
puterii
faceti
solutiona
genocid
stare
top
teste
durabil
increderii
familiilor
exprimate
instrumentelor
cauzate
dificultatile
atribut
frum
susten
turk
centre
bulgare
initiala
asigurare
##down
insemn
accentul
vulnerabil
fro
siria
unitate
atmos
day
provocate
industriala
terorist
vicepresedinte
dato
pru
discipl
situat
inchise
macedoneni
recomanda
jumatatea
ashdown
antren
ambelor
reafir
descentr
vanzarea
papandre
##uf
##arga
##ologie
jocurilor
traditionale
prevazut
##uieste
declans
demogra
evaluari
clauza
imagine
transparente
solutionare
papandreou
cite
##urie
arhe
nevoilor
singure
##menteze
asteptat
procurorii
sacri
privata
organism
insasi
##ligi
aspectul
nasc
istorice
adunarea
maghiara
vis
marile
auz
transatlant
constitutionala
intensifice
datoreaza
##icl
sali
devin
profunda
##matice
rede
nesi
zonelor
personalul
agentiilor
executia
elementele
sexuala
moscova
##ks
##entul
capacitate
vlad
incend
angajatii
ridicarea
mecanismele
adunarii
olimpice
podgorica
deva
aplicat
responsabilitatii
apele
oportunitatile
subliniem
psi
imperi
domnia
permitem
arestare
strans
indreapta
pozitiile
conflicte
pregatite
despag
autostra
despagub
##rimin
preve
##eta
alesi
2014
transparent
incurajarea
incalcari
etape
intarziere
stiintifica
izb
##dt
pron
##pecti
##meze
cazurilor
inregistra
formata
etc
scaderea
calend
dunarii
dayton
cai
combaterii
intregime
etnic
concentreaza
##roase
deseori
##ful
tai
transparentei
inovarea
redresarea
elvetia
sw
spuna
chim
ministrilor
tratamentul
abordat
capabila
veniturilor
ucisi
restrictii
aferent
ohrid
craciun
net
nein
##urata
prezentarea
reducerii
cerinta
dovedi
identifica
retelelor
stockh
patrulea
##vat
alarma
##ntex
oferind
imaginea
constructie
echilibrat
lactate
frontex
hid
##ergente
milion
desfasurate
suspecti
falsi
profesor
mitrov
frecvent
amelior
stockholm
hom
jose
kon
sate
sedere
privitor
##ela
votam
intrebarile
invers
delegatiei
suveranitatea
spectac
suplimentar
##fav
competitivitate
pregatire
discriminarea
monetara
luptei
arhiva
sume
##cator
##opoul
negre
##orabile
respectarii
evidentie
exporturile
performanta
##irat
minute
rezolve
consumul
primavara
succe
constitutiei
multumita
salariile
##gul
come
impas
primii
fiecarei
documentelor
frauda
secolul
gazelor
##den
##stre
rest
doct
##identi
practicile
precizat
34
##tel
##decv
roma
realizam
consolidata
functiona
conferinte
natiunile
mijlocul
autoritate
intim
relatie
prioritatea
spatiului
ante
olanda
##arele
##arh
credint
legilor
presedintie
papa
conflictele
interventia
influent
inculpati
nerabdare
kal
##gorii
##darea
alin
numarat
implicare
provincie
tinem
alocarea
moderne
spaniola
nemult
sarajevo
##roasa
retelele
integrate
dezavantaj
##kel
comunist
respectam
limitat
saraci
deceni
democrata
sporite
incurajeaza
renum
diferente
echipamente
regenerabila
fili
nen
##ocam
turne
reprezentand
conventiei
proprie
desfiint
contradict
proprietati
separat
36
gro
##bra
deterior
lasat
##aman
sej
vada
afectata
salariilor
##qi
invest
formatiun
inovarii
cifrele
firme
radovan
mitrovica
sla
constat
conta
ameste
filmul
initiativei
hotararea
fotograf
locuinte
pagub
nemultum
cursa
proviz
imagin
intample
depasit
criminalitatii
ancheta
fii
modalitati
insar
constructiva
consolidat
solida
dispozitii
iranul
bugete
interg
##oaie
continuat
transmit
numelui
articol
149
diplomatic
favorabil
entuz
alternativi
55
eligi
oara
##deze
annan
mexic
sera
negoc
extinderii
capitole
turisti
dispozitiile
asumat
justifica
##iu
cehe
foam
bunurilor
razboiul
apei
tehnologia
taxelor
convingerea
afirmand
psih
##reste
deop
##raz
obli
demi
ajutat
solicite
detalii
banane
abordate
scrisoare
controlului
actioneaza
vieti
##sha
##ula
privesc
atitudinea
depind
super
vreo
albanezii
anticipate
imigratia
miscarea
insarcin
vite
york
aflu
categorii
emisa
desfasurata
cumpara
platit
caracteristici
arat
incad
instruct
clima
extins
sursele
costis
sporit
voteze
disponibiliz
##antei
kosovare
incert
taxele
djuk
cladirilor
fabric
reconstructie
alexand
bla
pamant
usa
angajatilor
palestin
conceptul
pragul
competitiva
multianual
rigu
##stice
considere
##dik
parlamentele
potentiale
indeoseb
penala
cifre
hotarare
pericl
##bby
indeosebi
##ndu
##all
mearga
parlamentarii
europenii
finale
intreprinse
lobby
acuzare
intregului
minoritatile
macedoneana
prab
elaboreze
sea
##ann
evidentia
garantie
ilegali
trecem
retelei
linii
jurnalistilor
hote
particul
mobilitatea
perioadei
majoritatii
extinsa
zilei
incheiate
sarcini
locuitori
socialistilor
pierderi
organismele
##cunosc
contribuabililor
impresia
##ificarea
urmarit
neap
federatia
nota
treaba
gata
pal
compati
imbat
dezbatem
entitati
viena
muntenegrean
##zatoare
code
##cht
conduca
protejate
urgente
stimulente
transfrontaliera
lovitura
##oreasca
##ineze
##voca
metri
incurajam
ocupe
tomislav
subsidiaritatii
32
##cate
##don
##itiile
cote
fapte
respectat
invatam
imo
imbatran
##oana
##cel
admite
##zeci
##ergenta
rambur
dragan
echilibrata
expozitie
azer
protest
studiul
implementare
incepem
criminale
stranse
remarcat
arhite
##arate
intitul
vede
aderat
limitate
consolidarii
stirilor
anterioara
comentariile
crven
ortodox
izbuc
##dis
##aritati
voturilor
spunand
nuclear
dubla
echilibrul
porn
abdullah
trate
##oanele
##poarte
##entiile
record
propunerilor
folosita
americani
pasapoarte
cladiri
maritima
pilot
magaz
supus
filme
prevederi
depaseasca
determinarea
restabil
artist
opereaza
dezechilib
##mpe
ceara
neut
arbit
plangeri
##ingere
clas
firmele
imigratiei
lt
##cord
dodik
locului
regula
datoriilor
istorica
asociatia
sexuale
scen
sejdiu
demision
opus
purtate
doband
furt
vert
urmator
efectelor
pachetului
constructii
deschidere
natural
urmeze
organizeze
infect
posibilitati
procese
linie
crvenkovski
mol
##ham
cauze
congre
declin
necesitatii
discutate
relans
stimati
etnica
candidate
ecologic
limitata
insulei
maxima
boli
cul
cota
##ariei
privim
locuiesc
banilor
sinerg
musulman
treaca
antreprenori
cutremur
codeci
fla
##len
ferov
utilizata
orasele
conduse
retinut
##leaza
accesibil
##cont
vitala
dolari
600
he
##orabila
case
subm
creditelor
functionarii
optiuni
asteptarile
pacientii
treptat
latina
soviet
33
sala
alatura
privile
adan
obiectivului
ecr
administratie
identificarea
dezastre
subliniind
##itive
decida
dezbaterile
finanta
mentinem
ieft
privatizarea
berlin
vicepremierul
##opoulos
##erarea
##urate
intercon
asociatiei
similara
cuprinzator
##med
rezerv
prezentei
pregateste
comunicat
disponibilitatea
substante
conte
mobilitate
competentelor
pozitiei
##grarea
reglementarilor
1998
studenti
incurajeze
condamna
limitele
copilului
greseala
agra
har
impus
aplicata
agricultorilor
ingrijoratoare
ciprul
substantiale
evolutia
stef
radical
colon
patrimoniului
djukanovic
fix
indire
aprobata
asigurat
aspir
circumstante
inconjurator
bania
dati
inima
engle
intrebat
retros
1991
biroului
vietile
boic
primeste
separate
palestini
ratei
has
deri
atata
aprof
reiterat
vladimir
00
sit
ura
##tara
##itata
sezon
participare
250
riscului
numeroasele
delegatie
conservarea
indeplinesc
presedintii
investitie
amenintari
introduca
apreci
interzicerea
maternitate
retrospe
aminte
stabila
coopera
rezulta
obligatii
invatat
internetului
modele
reactia
crizelor
colectarea
inacceptabila
musulmani
armelor
cioc
fero
indraz
progresi
reunit
reuniuni
georgi
vreodata
actualei
intalnirii
incantata
inefici
bugetele
##ke
spuse
putina
parlamentari
evite
raspundere
propriilor
investitorilor
sustinute
complexe
bomb
ies
vaca
diox
minut
intrebarii
femeie
participantii
ampla
ratificat
locuitorii
credeti
irlandez
inraut
kla
deocam
##ceut
##areasca
amintesc
aparea
baron
oficialilor
formarii
repetate
desfasurarea
ferme
judiciara
incheiere
expresie
deocamdata
ucis
zid
ziar
preferi
cator
tribunal
americana
absoluta
prelua
irakului
uciderea
exemplul
fr
insp
##ano
reint
remun
dina
doriti
invecin
agricultori
usoara
revista
operatiunea
coalitiei
65
800
exa
dezvoltat
someri
umanitara
cerintelor
traged
feroviar
##ffer
##we
autob
gad
norve
functionare
demonstr
administrativa
accelera
##vinov
air
##stabil
nevinov
##ell
finantate
fermitate
identitate
asasinarea
suedeza
victorie
fatmir
gama
armen
genera
exploz
interesati
riscurilor
insistat
merkel
catorva
bce
supusa
limb
invin
exercitiul
cauzat
referendumul
finalizat
inteligente
obliga
comisari
paul
vestul
mosten
multip
capabili
lansata
stimula
insel
cauzele
asuma
initiale
lichid
insc
neo
##antele
##creta
concer
constanta
competitive
berisha
##zare
economici
propriu
inteleaga
germana
preocupari
olimpia
elabora
##erate
unitati
utila
eradic
protejam
compromisul
transformarea
hrana
##iva
##iana
##dini
2015
realizata
investitorii
spuneti
caracterul
jurnal
oarecare
comparativ
farmaceut
##emen
##rajul
conced
suf
invita
intentiile
moderna
skopje
platforma
telefonie
bush
ingre
##easa
stop
nerez
##duct
alegere
##erem
asigurarii
stram
explicatii
ceremonia
protocol
victoria
gazduit
arheolog
##dat
masini
climat
revine
apelul
vinde
emise
viol
primarul
muzica
azerba
37
##zeaza
##stic
##aliile
##sco
mobila
justitia
tehnologiei
programata
orientarile
pensiilor
scheffer
telecomunicatii
aparitia
ljub
nomin
pici
pir
##ratice
oral
incomp
stabilita
bulgara
norma
recens
participanti
internetul
preocupare
avantaje
aniversare
recensamant
goran
parea
mainile
institutional
posibilitatile
insusi
independenti
impresion
viziteaza
ratificarea
infractiuni
rutier
hoop
neaparat
kil
##ferice
publici
oficiul
lansa
scazuta
depunem
kurd
pastreze
pedepsei
aprovizionare
biserica
reconstructia
biodiversitatii
substantial
deceniu
retrospectiva
flo
##iul
pove
repro
productiv
operatiune
promovam
zilele
protejeaza
gestionarii
campaniei
gazd
avertizeaza
sportiv
romp
colective
marfuri
hotel
##dafi
adap
imbunatatim
transn
simple
orientari
secund
##sd
unitatea
intrerupe
urmand
femin
120
inregistreaza
terorismul
frontierelor
proprietatea
iugoslave
43
##uci
coa
arate
evitam
concluzii
bucu
operatiunilor
refuzul
platile
teatru
baroneasa
jerem
##nstitut
treime
##catoare
compara
democratiz
urmatoarei
recomandarea
interinstitut
negociat
unanimitate
##ingvist
intens
luxe
posibilitate
initiat
colaborarea
##strom
luxemb
##dk
##denta
mem
##ionate
rezum
obligatiilor
petrolului
calatorie
sarcinile
ven
vel
##vier
intreru
fiindca
mentionand
consolidate
ingrijire
constructiilor
uriase
socio
viteza
gaddafi
antoni
realizare
efectul
furnizeze
intregi
actionat
demonstreze
ascunde
jurnalisti
legaturile
nikolic
interguvernament
hol
##uy
marilor
excluz
reprezentata
civili
implementarii
respinge
scoate
diversitatea
forestiere
tal
##let
crimelor
descuraj
miliard
ignora
echitabile
avantajele
atlantica
comportament
urbane
##viar
trebuia
sansele
aveau
regulilor
rezolvate
depunerea
avizul
monitoriza
felicitat
##ld
intret
produsul
traian
publicate
distrugerea
evolutii
rezonabil
##idjan
verzilor
partenerilor
islande
desfasoare
echivale
excesiv
aeriana
georgiev
##ak
##uirii
##orie
nede
actiunii
##rierea
ajutoare
mobile
sefii
sarbesti
ambitioasa
breviar
departamentului
restructurarea
devast
incidente
##ons
tren
dumne
capabile
pericolul
stimularea
cipriotii
monetar
aprovizionarii
fragment
austr
42
democrate
pasnica
sanctiunile
detaliu
intocmit
stream
boicot
dumneal
stabilire
monum
chestiunii
reducem
limbi
incalzi
coordonata
candidatura
tensiunile
##gnost
factorii
amanunt
oarecum
berd
aferente
indeplineste
38
48
corid
curajul
che
resort
oriz
cresteri
furnizeaza
modificat
efectuata
superior
judecata
apreciez
ic
sv
informa
##izam
impuna
raportoarea
actele
aprobate
angajare
coresp
ingro
personala
inteligenta
robert
percep
##rn
##92
informe
##anei
lant
poveste
onor
clasa
purtat
individual
breve
camere
impuls
arctica
##orb
permi
mentiona
consolideaza
gradul
consumului
bosniace
oricand
paris
karaman
hidro
hash
lingvist
nata
##rosi
considerabila
inclusa
transplant
##ensibile
postului
criminal
impunerea
franceza
constran
cautarea
citit
suspendarea
departamentul
berisa
fizice
azerbaidjan
karamanlis
discre
deplas
feza
convergenta
obligati
analizeze
zero
satisface
etichetarea
pic
##cak
contamin
aler
##ficari
maroc
strada
lungi
prioritare
excesive
cotidianului
taiw
emb
conex
parale
acope
solide
detentie
plasat
britanici
exporturilor
##bih
adaptarea
pagina
ferovi
esc
ky
##jko
mag
sporeasca
demisia
misiuni
chestiunilor
tutun
buni
teritoriu
amendamentelor
ochii
corespond
##aris
creata
urmata
sarko
indata
margin
proprietatii
retragerea
pc
##ry
##noi
##lim
cond
seve
parv
viziunea
onorabil
investitori
exprime
provocarea
absur
consultare
concluzia
blocat
fiscal
dedicat
codecizie
hashim
evol
conturile
duc
marginea
balcanica
ingrijorati
infiintata
convinge
temerile
baltice
sarkozy
46
tv
yemen
unora
primei
##iciun
inadecv
sange
competitia
deschida
multumiti
reciproce
amanarea
imigrantilor
intelectuala
dator
liti
sensibile
derog
angel
inalti
retine
##ovac
recunoscuta
preocu
duble
evolutie
tabere
dovedeste
tat
##anj
##erata
##ras
##antii
##ovska
finalul
randuri
republici
barbatii
parintii
mediteraneene
raportoarei
toleranta
##kom
recti
secul
grele
raspund
capabil
manipul
inutile
modifica
letonia
atmosfera
aprofund
rompuy
milor
scept
uniuni
duca
generatii
pretului
germaniei
imediate
controale
invitat
protocolul
##script
##ket
##utate
cupa
secrete
##gas
autent
discutia
dimensiune
gosp
extrema
ramburs
jeremic
antonio
milorad
700
bala
##nie
##gene
##riei
##alie
##lax
tig
voce
renov
indicatori
puterile
enorm
muzeul
management
crez
##ush
actori
legislatii
##idem
coeziunii
medical
cantitati
medicamentelor
##wa
luati
multin
##ologica
##osex
exercite
##giu
##biliare
ascultat
medicamentele
renunta
mileni
evidentiat
homosex
credinta
satul
##usc
relax
aceia
##des
mont
angajeze
evidente
circa
definite
fermierii
dificultate
bucurat
renunte
intors
mane
qa
##ib
##vski
##inic
solutiile
oferita
favorabile
limiteaza
apartine
reinnoi
campanii
desemnat
nascut
vu
##oza
##dy
siguri
unita
comisiilor
##ionata
actul
propuna
conducta
promovarii
ahmet
gratie
##atra
laj
##intei
obstru
monopol
invoc
imag
folosind
constitutional
recunoscator
deseurile
eroare
categoric
nedrept
b92
sfor
inlat
precis
##vei
difuz
abol
servi
aspectelor
finantat
distri
lipseste
acceptam
umanitatii
doved
asumate
prezidenti
pronunt
verts
menit
atro
pav
indice
continuu
recesiune
depaseste
plecat
islamice
pr
th
stil
prefera
scot
plin
infru
informati
salon
mentionata
operationale
recunoastere
amenintarea
intensifica
terorism
digitala
incapacitatea
engleza
lac
dezvoltam
direction
politicienilor
alimentar
tehnologice
revina
inaintate
bilateral
israelului
achizitiile
exploatarii
alature
enorme
consecventa
distributie
linda
mie
##cevic
lab
masc
##umb
lucrul
multime
guvernantei
cerand
abordata
construiasca
marcat
contracte
favoriz
dimensiuni
prevazuta
sentinta
cunostinte
ajungand
dispunem
44
##ps
spons
originea
institutia
propunem
efectua
amendamentului
frantei
aducem
universitati
traditional
investigatii
otom
ilust
gospod
bara
afle
ordon
moarte
incerce
hamas
lasam
conect
alcat
##otice
demar
extinda
reprezentate
regulat
convinsa
definit
intrarii
atenu
atlantic
implementeze
slaba
orizont
hdz
##alitatilor
##ill
preda
comanda
anex
cazut
extinse
petitii
implementat
purta
ample
pastrarea
automat
obstruction
tul
##him
##jing
promp
inceteze
actelor
confe
generatie
responsabilitati
opiniei
voie
concert
relevanta
accelerarea
ritmul
nerezol
condole
##zarea
##burg
##inci
##ersa
##amo
concil
##intelor
trecute
putini
sociali
operatorii
trimita
cunoscute
vanzare
vehicule
genereaza
temporara
##ieli
##tex
##pei
incore
marina
bunurile
dezacord
respingerea
reconstru
ucrainei
municipalitati
impozitare
organisme
ier
##qu
conteaza
##lifer
kosovara
semnul
resping
provoaca
popoarelor
istoriei
pacienti
secolului
mijloacelor
prosperitate
statisticile
prealabila
autovehicul
bile
datorii
##ceanu
luare
virt
situatiile
gresita
institutului
lucrarilor
carti
japon
categoria
migratiei
geneva
fericire
indoieli
branko
##ureaza
##vine
casele
agentie
schimburile
populare
trime
rezolvata
uriasa
cruciale
achizitii
limitarea
beijing
tineret
geografice
evidentiaza
##uns
ana
fosti
liberalizare
expozitia
sad
cuba
##amp
sesiunea
pref
totalul
plural
confisc
tras
##olera
primar
196
obligatie
contributiile
permitand
actualele
cunoscuta
mergem
esecul
padurilor
##ho
##anamo
cau
nef
neob
##sac
##antanamo
daune
rezid
traim
implicata
victima
lucrari
acceptabil
planificate
armonizare
alegatori
transformat
maghiar
voluntar
subventii
dioxid
cotelor
imper
guantanamo
milan
traduce
most
explor
globalizarii
juris
garantam
recomandat
favorabila
premiu
karada
dinamica
ulterioara
entuzia
caderea
fostei
##atoriu
acumul
prezente
protejarii
presupun
diversele
alegatorilor
daunatoare
seae
karadaku
rada
tariceanu
platesc
nevoiti
consumatorului
invins
tehnologica
ecosi
excesiva
bloch
gazduieste
mileniului
ecosiste
47
codi
reinte
creare
##alizeze
altora
semneze
javier
preocuparea
integritatea
africii
comportamentul
alaturat
cartei
logica
calatoresc
jurisdict
umb
##kis
producerea
rast
moduri
modalitatile
semne
##ativele
alimentele
depasirea
cuprinse
destinatie
identificat
stricta
bogate
cunoastem
restructurare
dosar
deficitului
sentimentul
zilnic
tripart
ratele
##van
##ald
##ptea
##prim
timpului
femeii
capitale
germane
dezafect
tipul
permanente
vremea
evolutiile
radioa
artisti
detinute
david
dezbatut
lajcak
mers
atare
verdic
invata
pasnice
venitul
anunta
prioritatilor
favori
investigatie
rosu
registru
studentii
oricarui
palestinian
mint
##zele
inscri
previz
scuze
noapte
informatiei
gasesc
regulamente
intampina
locuitor
complexa
restaura
elimine
iugoslava
filip
cic
mala
##ral
delib
cerea
##anez
lunile
ramad
ideile
candidatul
granite
trecerea
definitiv
pregatirile
distribuit
kurda
pasagerii
bolilor
cancel
maghiare
parasit
danemar
natasa
bord
consilie
europol
iarna
traieste
patra
participarii
acceptarea
afirmatiile
caucaz
riv
cofinant
meh
##cute
modalitatea
ultimelor
bunavo
##iscrimin
accesibile
atinga
pericole
urias
albanezilor
pensiile
manife
incetarea
circumstantele
vehiculele
costisitoare
pn
rare
tub
uita
##orp
sil
amiaza
guine
indisp
planurilor
ocupat
ordinii
platite
incalcarile
metodele
tabara
interconect
autobuz
dumnealui
paralel
parvanov
district
atroc
sm
novi
importantei
sanction
clauze
##heim
capacitatile
controver
critice
introducerii
transmiterea
emergente
inevitabil
sustenabil
evaz
##roport
##enko
admi
soarta
disproport
suprem
obtinerii
razboaie
coordonate
tehnologiile
etnici
iranului
preluc
retrage
prietenii
titlul
ulterioare
chimice
menita
##gard
conces
trec
vide
autoc
prezentare
conventie
evaluarii
tehnologiilor
prevenirii
##ozitate
expertilor
identificate
inaugurat
demografice
restran
hiv
##ow
##usic
importate
scu
actor
discute
generat
institutionala
contribuind
solicitarile
vocea
candidata
revin
durat
atacurilor
satisfact
periculos
identitatea
migratia
incluzand
stipuleaza
repatri
bri
josi
##bas
sant
dureaza
##ricii
cooperari
suporte
vorbeasca
numerosi
constituit
reflecte
cancun
linia
jurnalistii
inacce
restrictiile
foloseste
araba
camerei
educationale
macroeconomice
ingrozit
ri
##pat
##land
##cata
reca
realist
##ultura
##ovo
chinei
greva
romana
supre
celorlal
facult
##nesc
climei
##udat
accelereze
impiedice
echitabila
rezervele
autonomie
scolile
web
paraseasca
scenari
natiune
tru
##var
##sponsa
supusi
limite
complete
capitalului
lansate
definirea
urmariti
clarifica
deficiente
distinct
fraudei
resortis
celorlalti
##zz
##jele
regle
proba
evitarea
opera
oriunde
stipe
gazpro
observam
temeri
occidentale
obstacolele
submineaza
pirate
banda
##her
pretex
treimi
europenilor
stabilizarea
##ling
realizeaza
publicarea
construit
march
efectueze
aplicabile
cinemat
explicit
constatat
africane
suferinta
impozite
intimid
51
##eda
seme
romi
utilizam
solicitari
vorbind
lipsit
navig
datoriile
modificate
controla
stiintei
voluntari
arabe
manuel
evidentiez
crezut
indispensa
vrut
unitatii
prevad
luptam
avion
declaratiei
cererilor
peters
functii
destinata
statistica
tangi
turistice
olandez
prejudic
by
boz
##janovic
codul
proasta
##ota
reput
##itudini
produca
descrie
solicitand
ridice
conduct
animalele
determinata
cunoastere
imbunatatite
irlandei
rutiere
iesire
##ng
##berg
specii
situeaza
generate
dispoz
integrat
populara
mecanismului
administrarea
oricum
referendumului
judecatorii
imbunatatita
indreptam
frecvente
aeroportul
interdictie
inundatii
iresponsa
sri
reabil
see
aranj
aleaga
adunat
multiet
piatra
liberalizarii
salva
marfa
solutionata
efectuarea
reusita
urmarirea
transmitem
period
forumul
diagnost
inflatiei
rrom
luxemburg
josip
evac
ger
sd
necl
bib
ramase
martti
intrebam
inregistrarea
comunicatiilor
profesionisti
centralele
verifica
indreptat
malm
occidentala
detaliate
spaniole
treptata
preliminare
slu
##bura
##aliei
serii
comite
milo
produc
indivizi
recunoscute
buckovski
formularea
paradis
miscarii
volumul
potrivita
stefan
memori
bor
fuse
jes
##ts
##ercul
##det
finan
munce
semnale
decizional
apere
asigurand
repeta
eliminat
salvgard
civiliz
reconciliere
tortura
ultra
tale
##itari
inten
finlanda
primite
capitol
programate
planificarea
franceze
beneficiat
reluarea
premierului
gale
alco
vale
atenti
admis
importurilor
masina
sprijinita
celalal
##gerile
reloc
construita
prevederilor
criticile
divert
week
ohr
cariera
negocia
celalalt
lauda
alz
doha
expuse
stav
return
religie
distruge
interzis
necore
##heimer
binele
##ten
unific
arte
plina
milos
miros
vizele
sarbo
detaliile
fundatia
raspunsurile
supravegherii
contributii
volati
migratie
rang
efectiva
malmstrom
br
##zar
##face
masive
aleks
domest
urmaresc
traiasca
obligativ
transforme
strad
orientare
zah
ferate
civililor
anticipeaza
implementa
preocupa
necorespun
initie
memor
##antul
binev
profite
raspunderea
existent
secretarului
spaniol
obisnuiti
pastram
licitatie
divertisment
alzheimer
85
psd
##lan
##pete
popor
pasnic
##giana
distruse
premiului
argumente
salariul
comercializare
nesigura
comemor
formatiunea
fbih
nis
rasi
acordarii
devenind
comercia
ingrijoreaza
aprobare
regulamentele
consecintelor
soldatii
electronic
fruct
john
substantiala
destabil
##inelor
contest
acta
genet
semna
onoare
usuri
analize
telekom
solutionate
ingrijorat
contractele
ambasada
invitatia
predarea
locuintele
dezastrelor
barierele
placere
jean
amplu
sat
simul
##tas
obtin
operational
portof
industrii
salonic
sluj
fuz
mc
svet
##ap
##vod
resim
concreta
nepro
rab
schi
nationalist
competitie
construim
acuzatiilor
absorb
faciliteze
avantajul
praga
studiile
cunostinta
investim
talat
gazprom
95
hran
kg
ki
nut
##ierile
restit
pestici
creativ
urmareasca
scrie
tratatelor
revizuit
eliminate
ocazii
##ofi
examina
planificata
certific
intoarca
birocratia
cabinetul
urez
##rb
defect
##onul
parc
fas
totdeauna
##onabile
informatie
centrele
trecutul
oficiului
reglementeaza
dateaza
implementate
varf
profesional
claritate
refugiatii
inlocui
birocratice
emot
interdictia
demnitatea
christof
tubercul
41
ay
##stea
aloca
prezentul
elev
momente
##atiunile
scriit
creditele
federal
colectiv
organismelor
tentativa
interesant
ombudsmanului
nenum
adapost
apt
##zia
##irile
##bar
cola
acelui
acordare
baj
disparit
bineven
trimit
incalcat
scrisa
drumuri
tranzactiilor
plenara
trateaza
progresiste
acopere
53
##stine
prile
##urb
economisi
depun
clon
tace
abordarii
secretari
punand
##cidenta
malta
suveranitatii
muncitorilor
avansa
bucuros
danemarca
dic
oim
##ik
intolera
pomp
creand
depla
consort
inovatie
verita
exceptionale
exploatare
unesco
insulele
kurzi
dizabil
memorand
aer
bir
cern
ruga
##ses
sesiunii
##cilor
##mant
presedintilor
##oiu
finantele
proceselor
industrial
solutioneze
atacul
constienta
pacific
cantare
retras
##smus
alatur
muzic
contribuabilii
catastrof
uniform
aspiratiile
usurinta
##lele
##inos
##ock
actualului
sfert
##skovic
pierdem
observatii
recentele
incurajat
combata
atlantice
tineretul
concord
rusesti
salvgardare
##kan
defav
##rot
prost
percept
necesitate
trasa
trafica
##ptabile
lanseze
climatul
capitalul
gazo
angajamentelor
exceptie
sportive
minoritare
legitime
petrece
##clav
precaut
disciplina
memorandum
49
oce
risi
##aturii
##rim
sis
proclam
seg
##umi
tratatele
barn
stagn
retrag
intentionam
tranzitia
aprecia
vamal
categorie
aleksand
christofias
54
hel
lic
rusa
##jului
reclam
##izand
utilizatorilor
esu
optiunea
recomandare
experiment
centralelor
textului
practicilor
pierderile
raniti
luptat
miroslav
bas
decursul
inferi
impusc
plateste
##mne
protestele
schimbam
biomet
martorii
culturi
viitoarei
elaborate
diplomatica
temporar
costas
livra
masacrul
confeder
marcheaza
bon
##gar
##fata
##eam
mama
sece
aseman
popoarele
motor
belgiana
sperante
coordonat
sustinand
amenintarile
ampl
posibilele
etichetare
promisiunile
educational
comentariu
extraordinar
reuseste
cenz
##juns
deas
restructura
intera
congo
sele
totale
sprijinite
utile
strategiile
saptaman
bosniaca
aprobe
intervina
amenintat
aprec
ivica
portugh
promisiunea
aviatiei
multinationale
deasupra
ration
vm
inum
##atis
##dez
##imba
partene
parlamentarilor
asista
angajeaza
cultiv
##neste
conducat
##deira
posturi
false
reinstal
periculoasa
birocratie
concura
monitorizeze
rig
sida
lantul
prosp
##oriu
transpunerea
informarea
datorie
contraface
birou
transfrontalier
islamica
imparti
spital
inacceptabile
##ff
nej
urne
schimbarii
lanka
evalueze
simplificare
primirea
suverane
asculta
liberalilor
ritm
persista
aratam
qaeda
incar
negativa
infant
dispun
dezbaterilor
promite
industriile
cheltui
textelor
concediu
acceptabila
divizat
vorbitori
inlocuit
inculpat
constiinta
castige
circumscript
georgiei
calendarul
caracteristicile
petersen
39
##cati
##entului
luk
##zez
##alizeaza
sectiunea
utilizand
##mann
ideal
telef
atacat
urmatoarelor
reactii
intarzieri
epidem
minoritate
suspendat
dezvaluit
casatori
intretine
barnier
##zic
##arzi
##ovar
##enteze
##spreze
dispute
respectand
intelegerea
furnizarii
pasaport
urmarim
estimat
maximum
mediteraneana
foame
hasani
vmro
nejusti
##zand
voturile
recicl
bank
medalii
garantiile
mecanismelor
incercand
flexibil
reusim
protocolului
nediscrimin
inaugurata
cabinet
extraordinara
manev
evacu
jessen
##pol
##ntin
dete
accidente
marele
competit
reprezentanta
invent
mediei
nordica
controalelor
stiinte
ampre
justificata
argumentele
morala
minoritatii
reactionat
navelor
colaboreze
vulnerabili
iesit
##cas
finlande
rezonabile
incorp
domeniului
interet
inaltim
haos
suprafata
administrare
bilaterala
majorarea
agendei
formulate
gresel
insotit
ost
reite
end
opon
ajutoarele
israelian
rapoartelor
stiintific
acoperite
erori
colectiva
descarcarii
imigratie
dedicata
imensa
aparent
rugova
multilaterale
australia
bibli
iub
ras
parlamentelor
confidenti
consultari
firmelor
vicepresedinta
pagini
catastrofa
italiei
impiedicat
intarirea
baltica
blog
mascul
preferat
usi
varia
cos
caute
acei
prerog
profunde
intrebarilor
##pteze
transmita
durabilitatea
angajamentului
plecare
multumiri
targ
distrus
planificare
maghia
tanar
digitale
prelungirea
liter
ghid
declansat
ari
ezit
sut
##zu
##sili
prede
##antilor
##opul
carla
realizarile
pregateasca
1996
placut
asteptarilor
micha
imprumuturile
cauzata
analistul
musta
fiabile
atributiile
prabusi
gj
##siti
##vor
neoli
spore
apla
##oviz
polone
raportori
vizate
imbra
singuri
construite
conduc
capacitatilor
potentialului
excluderea
planificat
flexibile
preluarea
birocratiei
prosperitatea
sondajele
italiene
campionatul
audioviz
66
##orupt
##utoglu
conturilor
regatului
versiune
mandri
usoare
ramanem
universal
rezolvam
federatiei
speculative
catastrofe
invecinate
bibliote
neoliber
hara
sdp
##nes
##iner
cub
avort
transe
miha
sudanul
integral
efectueaza
producator
iranian
amanata
introducem
autonomia
cabinetului
studentilor
norvegia
ultraperi
partenere
##iinteze
##stein
##omot
nobel
atenta
poti
clint
douazeci
reunificare
interveni
exclude
suspen
inlocuirea
davutoglu
temporare
termene
dobanzii
vacanta
cheia
##zatori
report
2050
complement
catol
spec
actorii
evit
recomp
aplicam
1993
optiunile
tenis
universitatii
vizitatori
olimpiada
gazdui
verdictul
fine
rub
##yan
desp
degrad
eufor
amand
##inaj
schulz
observatiile
interventii
fermierilor
modernizare
veche
predat
crestinilor
aprovizionarea
musulmane
satisfacator
ipoc
indirect
piar
##ph
##iem
sumele
foa
spal
##odor
raportorii
comuniste
inainta
angaja
patr
obligate
barcel
stadiu
muntenegrul
tensiuni
liniile
borisov
colectare
oprim
bisericii
suedeze
managementul
conceput
starnit
dpmne
disponibilizati
ieftine
apreciat
piarda
ruta
conting
sistematic
saptamanii
verzi
rusine
pasok
previna
intreaba
observatori
adreseaza
avertisment
incluziunea
automobilelor
subventiile
anticorupt
moldo
gazoduct
nl
##atei
rebel
laura
##mping
prefer
marine
194
publicitatii
procente
##orizate
violentelor
atraga
secretar
controalele
sprijinirii
vitale
certitudine
inundatiile
telecomunicatiilor
stojan
michael
56
ds
dor
zel
##zko
##oski
considerati
confuz
traj
profil
violentele
sustinatorii
compromisuri
rezolvat
extradarea
reinno
detaliata
reactiona
bunastarii
obisnuit
reconcilierea
unilateral
disparut
reusesc
manifesta
dizabilitati
impusa
##unere
permise
mentin
##greze
primim
adapteze
##grare
portile
acceptate
dublin
integranta
sanctiunilor
retraga
cautam
dunare
ministeri
submina
severe
amploare
barcelona
bron
ilic
zimba
##ift
##kusic
crestine
liste
formele
trase
programat
obligat
liderului
respinsa
condamnati
structurilor
mobilitatii
distribuirea
inlocuiasca
fabri
epui
locuintelor
coerent
detaliat
cancerului
sarcinilor
emiterea
autovehicule
swift
kilomet
discrepa
ordonat
trimestru
zimbab
sy
##mt
##dita
reie
sectori
marin
astepte
obligatiuni
aprin
administrativ
verificarea
simplifica
infractiune
bugetelor
pensionare
nicos
satelit
##cy
##icipale
acuza
##amentele
urban
scos
croatii
provenite
angajarea
sperantele
depasesc
clarific
relevant
raspandirea
variet
polonez
imunitatii
faciliteaza
interinstitutional
anticoruptie
##cita
##mo
provoca
semin
presiunii
##istul
viru
sprijinire
sarbato
anumiti
##inger
versiunea
reglementarii
colegului
exprimandu
revizuirii
secole
traditie
deficientele
turkmen
ameliorarea
feroviare
binevenita
##bri
##repte
labor
##olos
madeira
dinkic
##omba
privati
inasp
provine
martin
analizat
varste
metod
niciunul
incheierii
##urope
formula
finaliza
imigrantii
scurte
lasand
legitimitatea
unilaterala
indelungata
farmaceutice
josipovic
predeces
ama
cobor
politisti
prezint
##vision
pescarii
candidatii
plafon
delegate
jocuri
instabilitate
instituie
armonizate
aparten
ucise
adaptare
poluarea
argumenteaza
chinez
defini
veter
diagnostic
dss
hal
##ret
saptele
acvac
urmei
repar
municipale
expulz
responsabilitatilor
##cursului
benefica
functionari
petro
furnizorii
garantate
garantata
coordonarii
eco
observatorii
principalelor
examinarea
tendinte
trupelor
discursurile
chineze
adriatica
mostar
saptelea
52
lent
ph
##ley
##sil
##amb
sesiuni
neres
split
##elic
raportat
munc
##estim
intemei
pierdere
##rezece
viitoarelor
orientate
jaap
fermieri
diverselor
introdusa
prieteni
analisti
stabilirii
paddy
golful
persist
litig
volatil
zimbabwe
nerespect
bit
##ware
coex
##media
##dusa
elen
generali
##hne
confrunte
operatorilor
promovat
clauz
formeaza
evenimentului
scadea
condamnarea
platfor
cladirile
socialistii
separati
normala
proportie
fizica
achizitionarea
prudenta
eradicarea
bomba
##duri
coe
abrog
organizare
schimburilor
reprezentarea
realizari
convent
populari
estonia
instrumentului
concediul
producatoare
sanatoase
criminali
argint
cipriote
excelente
flexibilitatea
legaturilor
surprins
1989
interesanta
colabora
prizonieri
ultraperiferice
clinton
##ensul
minima
consensul
opreasca
noaptea
tratati
asistat
studi
adusa
ingrijorator
read
substanta
draskovic
entitate
editia
colega
promisiuni
indepartat
prezidential
fiti
suta
##torii
recl
##oto
autorii
bah
unuia
curte
numitul
##ologic
trecutului
oferirea
convinsi
ungariei
cumpere
cipriota
profituri
olimpic
vandute
escala
autovehiculelor
##sprezece
59
##gon
univ
mad
exace
reperc
guvernarea
mentinerii
negocierea
inregistrare
exercitarea
cheltuit
contrab
asteptari
fortat
fortate
eliminam
britanii
entitatii
parintilor
carbun
vulcan
stocurilor
voluntara
viabila
enorma
inutil
imense
ipote
mixte
impozitelor
derivate
rasturn
62
##lod
predea
##ranj
misiunile
conving
iasa
analizeaza
revizuiasca
credibilitate
precedente
vecina
titl
reformarea
solicitantilor
57
fse
ili
vene
##organ
##arei
##chest
repart
minore
calatorii
rama
limiteze
parteneriate
exprimam
exprimata
verificare
soft
finalizate
reformare
barierelor
articolele
citez
deopotriva
islandei
abolirea
nerezolvate
biometrice
repercu
oma
pp
##uoasa
##orat
##iness
intreve
pacat
incetin
reprezentare
propriei
constructive
transporta
etnie
expertiza
gandire
exceptii
terorista
carbune
locuitorilor
abuzuri
aerona
eficacitatea
bolna
imposibila
incluziunii
logic
insistam
patrimoniul
ceremonie
deoparte
mehmet
ibra
##hard
##djan
deport
##sev
presiunile
raspundem
ambitiile
limbile
furnizat
observatie
acceptata
gasite
condamnam
precizez
profesorul
epoca
municipalitatea
intoarcerea
investigh
invatamantului
daniel
migranti
intense
concordanta
gi
vii
##zata
##tia
##citatii
cov
scor
cazului
romii
reducerile
evaluam
cercetari
corectarile
jazz
eliminarii
vigile
concedi
initiativelor
barbatilor
intensificat
centralei
petroliere
respectivul
conservator
restabili
rromi
intitulata
61
##sip
ceku
pope
raul
chp
situata
piese
numitele
insine
bunei
familiale
dumneaei
programare
gazda
delegatiilor
determinare
posturile
denunt
leaga
cunostintele
opunem
judecati
hartie
entuziasm
fit
hu
iii
kat
ump
##rita
rezist
testele
confera
trait
directorului
procedat
concediului
mesaje
precise
incalcate
turistic
eventuale
initierea
urbana
alexander
ciocoiu
inselatoare
sand
decur
magn
precare
##stadt
##orica
##oturi
##intre
implin
##icilor
calitati
politician
reprezentantului
aparam
stimulent
stangii
iesirea
##urop
impartasim
terenul
soldat
modelului
liberei
complicata
geografica
vehiculelor
gold
inex
prest
liga
extreme
decisiva
binecunosc
functionala
solutionarii
proprietarii
proprietatilor
adresandu
##chetele
indoiel
insuficienta
diversificarea
disputei
absurd
greselile
venezu
67
bere
dans
ule
zb
##stan
siri
intarzi
armele
intrare
reface
afirmatia
justificate
iugoslavia
predomin
curente
proportional
muham
poluarii
invatamantul
italiana
demisionat
63
bler
uitat
curat
trez
vas
kosor
necesitatile
schimburi
nevoi
travers
piesa
descur
imbog
realizarii
investitia
ambitia
strazi
strazile
industrializate
sporirii
directivele
potentiala
contractelor
jucatori
finalizata
comercializarea
business
zboruri
falsificate
prompt
conductei
bronz
fuk
her
trata
##rob
rex
##sad
vasta
solvit
bako
infran
dispusi
195
bucuri
capacitati
conducerii
exclusiva
ivanov
adjunctul
padurile
vinovati
##opolit
cancelarul
turkmenistan
hect
nan
##ariile
##istic
difera
##enesti
consimt
##centrale
domniei
procedurale
elaboram
revenit
asociat
combat
prelun
purtator
purtatoarea
divizarea
scolar
diversitate
golf
ombudsmanul
diminuarea
intampinat
excluziunii
suprema
resimt
58
vanda
##unta
##dian
provenind
conventii
adapta
transmise
ideii
1997
incredi
anuntul
gasita
dublu
referindu
amanat
judecatori
dusan
eliberare
tendintele
turistii
titlu
suedez
pagube
##annis
pul
##ue
##sov
##tor
##ansa
ster
##vel
raz
atentiei
tox
##stian
negat
includem
evaluat
evaluate
eliminare
plece
ordinul
exploate
blocului
instituit
judecatorilor
indreptate
detinuti
bunastare
navele
multilateral
recurs
belgiene
incadreaza
particular
adanc
blerta
ts
uim
##keri
sugere
exon
amana
grecii
caldu
piet
respond
puternici
pretinde
atingerii
producatorul
presupusa
eliberat
sectoarelor
puterilor
naturii
ratingul
revenirea
modifice
sovietica
software
73
xxi
##kul
##lora
infiintarii
insisi
invatarea
justificat
cantitate
paragra
minoritatea
ambasador
trimiterea
musulmana
continentul
proprietatile
imobiliare
restabilirea
permisiunea
conciliere
radioactive
foni
ziv
##uzi
##entive
##icult
lamb
paralele
##astase
demarat
consul
##derare
baba
##gerilor
moon
grade
subiectele
preventive
intentii
comunicatii
definitie
diferentelor
manasti
uneia
inflatia
satisfacatoare
registrul
tatal
nastase
tinte
##mana
##deaza
remed
unitatile
##intea
parut
listei
incen
inco
discutata
organizeaza
infiinta
convenite
intreprins
ingrijirea
protejat
atingem
dispozitiilor
facto
pregatim
relevat
examineze
fabrici
maxime
vandut
fiinte
##ushima
ghi
koz
odi
##oce
##este
##17
##iam
conforma
##deri
arma
##ordona
acordand
avioane
niciuna
recol
semnate
##loarea
detina
bancara
martori
implicarii
preventi
cincilea
supraveghe
amploarea
dimensiunii
##itudinii
statistice
radicale
dependentei
austriac
complicate
meciul
plaseaza
licitatia
relansarea
nicosia
foniqi
rich
lase
concursul
##etice
politiene
importuri
cath
minun
cetatenia
asistam
functionat
peter
cheltuiti
ocupam
orientata
azilul
inchisori
hotarata
seriozitate
##boj
editori
constata
indeplinirii
simtit
oricaror
armenia
retragere
detect
fukushima
rexhe
64
zv
##dinaj
rete
##olas
faim
libiei
generatiile
utilizatorii
provocata
ziare
resursa
existentei
decese
##terin
110
gestiona
asteptare
recomandarilor
convinga
corespunde
stimulare
dificultatilor
amplas
cipriotilor
##cidentelor
viabile
surprinzator
avocatul
procentul
sindicatele
nikolovski
contradictie
vujanovic
bunavointa
haradinaj
dui
merc
##ami
##ish
##urati
anon
##dus
adult
partaj
pasul
serveste
directii
interog
grab
barrot
functionarilor
eram
adevarate
simult
intalneasca
protejati
teritoriile
orientarea
preocupati
mediteranei
ivanovic
speculatiile
infrastructuri
rosii
suporta
subventiilor
rezonabila
spectacole
video
abil
frat
gun
ldk
undp
##omir
angajate
orale
mandru
##ntial
diplomati
exporta
sanatoasa
structurala
remarcile
cantitatea
profiturile
auzim
despagubiri
popescu
jon
rusi
##iau
spaniei
##ionare
locatii
##ficial
afacere
markovic
stadiul
elaborarii
delegatii
vechea
colaboram
##itudinile
frontierei
electronica
##cker
nepotri
insotita
exager
sponsoriz
initieze
nenumarate
propag
necunosc
lux
cumva
curata
indeamna
marturi
ambitie
voci
declaratiilor
regulamentelor
teritoriului
atinse
fortata
largi
suspiciun
flexibila
separarea
oprit
determine
thail
diversitatii
consilier
limbii
multiple
dispozitive
ibrahim
78
citi
die
emit
far
qu
##to
consac
stani
eurovision
nefav
##chi
aleasa
subter
gue
recru
nationali
infiinteze
oraselor
elaborata
substantelor
minelor
impartaseste
africana
eticheta
abtine
teatrul
extraordinare
fotografii
babacan
but
c7
kova
kofi
maturi
sns
##hic
##bc
exterior
pert
consist
efd
sergh
guvernarii
cali
##jajic
popoare
anularea
evaluarile
functionale
combatem
anuntate
gazului
animala
inchisoarea
precizeaza
ratificare
carbura
##book
indrepta
transferate
descarcare
identitatii
avansat
turistica
##lines
vecinatatea
indemniz
ofiter
coopereaza
imens
define
solicitantii
insuficiente
terminat
autostrada
##ersale
ingrozitoare
scenariu
universale
stanisev
72
fri
##odi
##geria
reglementate
trimise
capitolul
furnizori
geopolit
garantat
materii
documentului
presupuse
barbat
circula
mladen
intarzierea
tunis
biserici
sotia
vinovat
veto
arhitectura
contemp
serghei
cui
gig
ljajic
runde
##hof
decurs
##ulg
initia
incidenta
##uneste
finele
soferi
comunica
vizeze
dispus
ultimei
marturie
portul
ataca
concepe
infiintate
inaintata
scapa
reding
operatiunii
distrugere
deficitele
criticii
realista
parinti
islamic
bogata
coerente
ansamblul
greseli
biodiversitatea
airlines
900
zg
##arov
coordona
nova
contabil
veterin
schw
turn
##ativelor
serveasca
ingineri
purtam
interpretare
dezastrul
avansate
supravietuit
statisticilor
focului
##control
aleksandar
mustafa
rexhepi
pon
##neze
##ouri
##inare
##ena
fiul
##schi
dezarm
##ugen
##ogle
finantari
termenii
verhe
stadi
nordului
folositi
absolv
incercarile
adaptate
deschiderii
sugera
citand
interpretarea
originii
disparute
necondit
tragedie
rectific
fusese
bale
furi
kr
lie
##red
##rina
coin
caile
exclus
comunismului
facebook
tratam
insult
sfere
medii
modificata
concluzionat
urmarire
achizitiilor
asumam
vamala
componente
cancer
decala
neincre
verheugen
ghe
hon
mld
deranj
##amili
nelo
creative
comisiile
urmate
vesti
protesta
prezentam
vizat
publicitatea
sfat
interventiile
directivelor
clarificarea
speculatii
calificata
detinuta
frecventa
reactioneze
aspira
gratuit
rotativa
mosche
benz
sugestii
bombard
alcool
neloiale
99
aducerea
bele
buz
iord
##sera
##atit
fostele
rachete
##grade
##zise
situatiilor
albert
##ureze
respectata
conducte
surpri
navale
reducand
porturile
natiunii
mich
echilibrate
circulatii
plenare
sindicatelor
insuficient
intorc
transatlantice
agrav
reintro
portughez
covarsit
##uropene
zvon
cvet
##citate
capete
realiste
unu
unda
anchete
atom
dacic
comput
scuza
ultimilor
supune
finanteze
valid
##erman
lipsita
vointei
inregistrata
preaderare
taxei
britanice
tensiunilor
respinse
##nicii
secol
traditionala
restrictive
institui
pensie
vanzarile
sincere
restrictiilor
tineretului
google
davor
nesol
controversate
magazine
klaus
kurdistan
imin
pict
vid
##zate
intentie
intensa
##misi
turco
dezvoltata
viziteze
onoarea
intreprinda
straina
operationala
indiviz
recunoasterii
britanica
atenei
identifice
optimist
complicat
repatrierea
desfiintarea
picior
fezabilitate
##ude
##par
##ino
##ang
##rova
cada
peisa
##imea
##ocrat
privita
##idar
adanci
dumping
##miste
regulate
publicitate
progreselor
ambii
ambigu
pareri
distor
lipsesc
apelor
reven
infraction
frank
clarifice
gandit
instituire
interzisa
moratoriu
separata
pedepse
ofiterii
dezamagit
aruncat
superioara
geografic
controversat
controversata
sustenabila
insemnat
evolu
tulbura
neobisn
consimtamant
##uali
##so
##dm
inzko
cec
prefere
##ize
declare
topi
organizatorii
nationaliste
cerute
##ologia
utilizatori
functional
inregistreze
reuni
revizuita
elaborare
plasa
concluzion
universitatile
constructiei
rezolvare
##ofob
coalitii
profesori
material
naturala
etiche
infractiunilor
barica
autorizarea
vechiul
integritatii
350
kabas
distributia
laptelui
potrivite
furtuna
tripartite
cenzura
mercos
isa
pit
##zime
##dica
cante
concurs
##veti
noci
fostii
cib
plant
milovanovic
maria
echiv
martorilor
convingere
sporire
concentrarea
ingrijorarile
concetate
obtinuta
stimuleze
pastrat
tanara
proportii
obisnuite
superioare
recuperare
inscrie
normale
hectare
mercosur
dot
iro
tel
##put
##jelor
der
##arc
revit
lampe
pelic
compozit
pak
raportare
tract
informatice
implicatiile
pleca
monitorizarii
numeroaselor
##oblig
substantele
legiuit
amintit
occidentali
avocat
fugari
ignorat
prizonierilor
delicata
scrutinul
limbilor
valentin
milososki
litigiilor
cibern
tic
##leze
##cente
masiv
conforme
eurooblig
neintele
angl
crizele
basel
libian
ajutoarelor
reprezint
directoare
publicata
afecteze
oportunitatilor
contrafa
comunicarii
durres
dramatic
##dox
ratifice
kurde
eliberate
procuratura
cautare
irlandezi
miting
arab
kargaz
radac
autobuzul
avant
kri
##neasca
##jani
reorgan
cupl
timpurie
finantata
decente
navi
incredint
depasite
participante
azilului
##eval
invatare
circulatia
impunem
adunare
colectate
anticipat
tablo
felicita
singurele
informeze
concesii
nesiguranta
schwarz
b7
##jman
##ye
inj
lama
##siu
faptele
urmatori
demis
extract
agro
monop
perioadele
suprap
anuntarea
inovatia
varst
determinate
efective
voluntare
bolii
inutila
emigra
reamintit
stoparea
incalzirea
pnr
genetic
##vodina
bakoy
richard
zd
##44
##inul
cotele
presiunilor
alp
importul
##itiva
enum
inchida
relat
respectare
market
asigurata
reduc
inovatii
contravine
tension
130
ampli
vazuta
jucator
comerciali
asasinat
##schim
izolate
procurorilor
tonul
apropiate
concedieri
alerta
otoman
83
kras
detas
casp
##olit
advers
adoptare
utilizati
profitam
patern
implicatii
pasii
observator
facilitati
disponibila
constante
dramatice
incercari
temelie
repetarea
lasati
batran
supravietui
impulsion
renuntat
brok
prevedere
arhitect
ortodoxe
privileg
tangibile
ppp
bate
ke
rural
sclav
##cr
##stii
##stept
##utati
mak
prestig
firesc
amn
legume
subestim
punctelor
interzise
one
regulari
negocieze
sinuci
anulat
pregatesc
texte
lansarii
consultativ
intervenit
franco
contractul
mobilizare
merit
cladire
judecatore
transferuri
viabilitatea
dictatura
extremis
preferinte
mostenirea
sdsm
contrafacerii
kilometri
lampedusa
pakist
rost
##randu
##usele
##jel
decent
##uni
##enstein
##amet
semi
nepre
neboj
mete
##cher
lucrez
##ionarea
avute
trimisi
surpl
protejare
germani
transfera
cursuri
controleaza
blocul
eliberati
impozitele
sensibila
impartite
rupe
supravietuirea
manifestat
poloniei
redesch
succese
usaid
remuner
stramutate
reintegrarea
asemanatoare
toxice
fu
##nis
##vis
##vid
deced
aliat
meta
rega
##aneze
lucrurilor
cian
##ass
##ficiala
nevoii
tratarea
initiate
continuarii
evalueaza
petar
increzator
interesat
ingrijorata
functiune
jad
linist
cladirea
parasi
donatorilor
examinam
autorizare
intrunire
microcre
legitimitate
daunele
rotatie
dezvaluie
fluxurilor
incidentul
rugam
provizoriu
incertitudine
sovietice
informez
taiwan
ipocri
nesolut
76
##ualitatea
##net
cee
##pet
prele
nel
tiran
formelor
basc
recrut
vizand
corel
tehnici
transporturi
multumim
structurii
##otehn
amanare
crestinii
calculatoare
prealabil
licenta
tragice
dezechilibrele
musulmanii
incompati
kyoto
portofoli
variaza
bakoyannis
nebojsa
jele
##apt
##nam
sam
reprim
lag
##iciu
poez
##laj
instruire
bunele
medalia
climatului
sefilor
##produ
zap
alocata
explicatie
clarificam
##oft
imprumuturilor
radiodi
depunere
portugaliei
donatori
examineaza
drumurile
discursuri
fericit
activelor
prosperitatii
nereglement
lectie
avanseze
apropiata
sahara
valoroasa
intitulat
anexa
bajram
birm
cvetkovic
gl
rice
##cu
##jug
##kir
##atri
##eram
guvernatorul
gresite
decisive
calin
imbunatateste
rezolutiile
operatori
castigatorul
sustinator
arestari
efectuarii
religios
brevet
respectivele
microfinant
extremiste
sugestiile
izbucnit
dinainte
concerte
briga
obligativitatea
defavorizate
varietate
apartenenta
radiodifuz
cv
dpa
ngl
tact
##unte
##sek
sem
previzi
##laf
subse
cetatenie
invete
aveam
angajatorii
angajatorilor
directiei
obligata
verhof
majoritar
industriilor
promovate
sporim
transferat
tipurile
ingrijorari
interventiei
atractiv
defineasca
teroristi
formulat
sexe
finalizeze
salvarea
patriarh
echipele
trimisa
contribuabili
muzeu
aflux
aprecierea
zgomot
verhofstadt
biz
dal
rt
tare
wol
##zer
deces
mineri
depoz
institutiei
specializate
semnificatia
indeplinim
tribunalele
omenesti
consultarea
regimuri
depasim
micros
revizuim
ankarei
inculpare
conservatorii
acoperirea
instalatii
##isprezece
calatoreasca
apartinand
ascuns
intreruperea
devastatoare
confiscate
scump
bahra
politienesti
moi
##ker
##kon
##yet
laure
foste
dorea
rafin
lehne
##ntaj
pertin
fete
ultimului
oferte
intreprindere
administra
spunea
studiului
pescarilor
democrati
simta
sefului
exercitate
prioritar
gazele
contribuim
hotarari
investigatia
porc
interesante
concepute
turneu
sceptic
acvacultura
98
gros
kaza
ug
##zul
##eana
##fta
colo
stal
neco
poet
afis
produsului
schimbului
dispusa
strategiilor
conventiile
cercetatori
##kova
clasat
lanseaza
interesata
filiale
incurajez
140
amenintate
indicator
majorare
simplificate
cauzeaza
braj
incantati
piloni
dosare
materna
gripa
frumoase
arheologii
reputatia
muhamet
microsoft
77
ege
pdk
##get
##tp
caf
cailor
paramet
arti
##istica
crestini
aduna
legalitatea
compa
sosirea
genul
tragem
anton
buda
dumneze
inving
specificat
##cheta
anuntata
premii
israeliene
terenurilor
contacte
obstacolelor
insistand
debut
multumirile
imagini
imperativ
slujba
74
cicl
rar
##stone
precara
perche
orchest
organizarii
profun
sfar
scrisori
transporturile
sefi
interesului
scada
presupus
exportul
neajuns
dubrov
secunde
terestre
djelic
canale
legitima
continutului
clientii
eventual
apreciem
academia
dizol
turneul
##lenda
prlenda
rromilor
##determin
bucurie
kabashi
contrafacute
perchezit
dubrovnik
81
fura
pse
##kos
selim
##pere
partii
caldura
semneaza
solicitate
respectului
avuta
recunost
scopurile
globalizarea
1994
bazam
protejata
filmului
filoz
atragerea
identificare
avertis
ucrain
ciprioti
stocurile
calificare
##shori
fugar
bursa
unilaterale
preliminara
nereguli
reafirm
inrautati
manevra
moldovei
fule
loi
oz
pd
##gand
inci
##rom
uniti
premat
privit
assad
intreba
abtin
schil
##ertz
interfere
convers
populatiile
##ierele
##reglement
decenta
sudica
operator
furnizare
garantia
analizate
fortati
142
vechile
examinare
opel
uniforme
debloc
promitand
palestiniene
admiterea
inspirat
democratizare
incalzirii
ilustreaza
guineea
aceluiasi
cerno
omagiu
revendic
68
71
88
bata
slav
wa
##fil
##ster
unh
##semn
conlu
sel
stres
##usuf
toxic
chi
incrimin
specialisti
cooperam
rome
legislatura
belgrade
lipsite
hadzic
coordoneze
somalia
actualelor
irakul
colaborat
felicitari
credibil
temperat
rutiera
tranzactii
columb
vlado
performantei
fragila
pakistanul
demonstratii
amanuntul
pcp
sporeste
imbracam
##intreprin
covarsitoare
furaj
gim
kom
vita
##ary
fosili
lega
dezb
comunista
##nabile
numiti
tratata
sanitar
indrepte
asigurarile
asigurarilor
consumator
lumi
retorica
semnificatie
##financi
tehnologic
functiile
monitorizam
cuprins
diferent
contractuale
cartile
abuzurile
procurorului
suveranitate
trimitem
arunca
denumit
flagra
cinematograf
binevenit
interetnice
ion
##idu
##aric
##duit
##istrib
incetare
fed
carl
afirmatie
planeta
controlate
exporturi
gandi
slogan
diviziunea
transformare
paradox
salariale
calificarilor
drogurilor
rezervelor
autonome
microintreprin
demnitate
vizibil
recuperarea
neregularitati
regizorului
negociaza
necorespunzatoare
neprolifer
circumscriptia
madrid
propaganda
marketing
fan
groa
kem
lini
nano
##imp
prostitut
primelor
##ficati
veste
rezidu
guverneaza
scrisoarea
intreprinderii
stiut
simti
recesiunii
amenzi
candidatilor
verifice
emita
preconizata
impozitarea
aliatii
expozitii
viabil
diasp
dobanda
mirko
valoroase
ortodoxa
neutr
licitatii
moisiu
lj
##zita
camb
masiva
##ptii
##alizati
liban
##oanelor
index
oricat
elevi
intreprinderea
conformitatea
##atiunilor
implicam
##mmertz
participantilor
redistrib
senz
stankovic
echilibrului
reactiile
entitatilor
denat
divizata
brammertz
inteligent
bolile
aeroporturile
inundatiilor
acelorasi
muncitori
macroeconomica
cumparare
troica
inversun
colonel
embar
imagina
incorpor
calduros
bahrain
recunostinta
g17
muta
uitati
defa
inot
##erand
##alim
poarte
alese
aviat
persona
prezentand
expunerea
controlata
reuniunile
cheltuite
sublinieze
consultanta
asteptati
crescuta
scape
gandeasca
dramatica
blocarea
exceptional
traditiile
##atisfa
bogd
examinat
citata
formeze
vukovar
inegalitatile
vedeti
secundare
magist
reinnoirea
gospodarii
satisfactia
clonate
stojanovska
prelungi
budape
82
dr
famili
omul
otel
sab
recept
lazar
prevada
##otaj
nelin
nelim
neschim
sistematica
bioc
primara
rezolutiilor
promot
populatiilor
capul
aparate
succi
succesului
ocupate
explice
neastept
instabilitatea
salariu
privatizarii
exempl
dezastrele
nesatisfa
proaste
etapele
deteriorarea
ineficienta
blocheze
competitiei
zivkovic
ghise
86
elic
ken
pane
sha
debit
inarm
##itarii
##itiilor
cami
prolifer
##atale
ves
situate
numim
devot
expira
propriului
fundatiei
oferindu
conduita
integrala
incalz
numeste
adusi
indeplinire
executare
explozi
asociatii
vietnam
criteriu
afirmam
achizitionat
irakian
francezi
##comit
complexitatea
omologii
acceptabile
eron
guvernamentala
valabile
telefonice
fenomene
##jikusic
renuntam
protestatarii
amestec
instructie
contesta
nevinovati
inscris
infrunt
blocheaza
zeljko
baschet
aspre
bin
haris
mita
pusi
##uste
##inoase
unitatilor
##iasi
##iacente
starii
presc
urmam
plang
valorii
imbunatatirile
medalie
prevenim
lansare
gestionat
asteptata
respingem
experientei
autodetermin
argent
elementul
investigatiile
incalcarii
televiziunea
antibi
demnitatii
chineza
combinatie
clienti
familiari
consecvent
adrian
conceputa
dimitris
transatlantic
konjikusic
riguroase
dovedeasca
japonez
inaltimea
goldstone
defineste
consimtamantul
oett
roa
voa
##rala
##arba
resedint
multil
economi
daram
necesitatilor
elveti
disparitati
activi
progresa
verdict
medvede
sustinatori
balcanic
incurajare
diplomatii
factorul
preocuparilor
investigarea
invitatie
inculpatilor
portughe
bogati
beq
1980
raspandita
bilant
intelectuale
esecului
descriind
dobanzilor
papad
ieftina
nedecl
facultatea
navigatie
domestice
repercusiuni
krasni
brajshori
dumnezeu
oettinger
medvedev
c6
men
ose
insele
##aresti
coca
maf
contina
atingere
domic
grece
neguvernament
interop
marovic
retro
teritorii
inovatiei
gasirii
##ensiva
clarificat
afirmatii
guvernamental
aspru
muntenegreni
dragul
perfecta
rusesc
clubul
comparabile
cereale
reglementa
galeria
apreciaza
reiterez
abilitatea
pisc
rute
##pc
##lov
##artate
coel
##alt
##rav
unitar
curate
cubi
raportate
baut
minister
interdep
deturn
marit
antici
inainteze
marko
oportuna
diplomat
universala
definitia
criminalitatea
revizuiri
traditia
cladirii
aceleiasi
judecator
conservare
municipalitatile
caracterizat
radicala
axeaza
lectii
suspectilor
dinaintea
ingreun
semest
impuscat
finlandez
cosmet
literatura
reiese
reteta
contempor
belene
coelho
jam
olaf
sule
tr
voastra
lam
##arin
##pti
tihic
lunar
sprijiniti
randurile
pozitiilor
indepartate
naz
asigurati
arestate
natiunea
nisip
bojana
intrunirea
continentului
muncitorii
dominat
solicitanti
sarbatorit
garda
reafirmat
impasul
cauzelor
aminteste
angela
inaspri
tuz
##anui
##rup
##meti
##erine
amane
multora
bay
areste
agim
crestem
posibilitatii
##misa
primita
marja
ispa
indign
geoana
nimanui
revizuite
brusc
prioritara
administratiile
180
experiente
dubl
vecinilor
sexual
justificare
calatoriile
cautat
beneficiu
dezastrului
moldov
dedicate
macrofinanci
indoiesc
suportate
eventuala
belgian
prevedea
renumit
ingredi
capitalei
segment
fabricat
venezuela
gunoi
buzun
surpriza
echivoc
subsecret
budapesta
antibiotice
krasniqi
nich
plea
rationala
##gic
inspre
##scar
##istiti
orban
nevoite
expan
cateodata
convoc
construire
1244
pack
intentionati
jac
contributiei
pregatirii
blocate
instantele
ambasadei
ief
introducere
suspendate
turistilor
sarcinii
dezbatute
vizibile
zborurile
tarifele
regizorul
contradictorii
insarcinat
congresul
##ques
filozof
interdepend
frica
io
tet
##lovic
coton
##erati
cefta
alf
eurostat
nepl
##sconi
teher
##lusconi
cerc
primire
indator
carnea
carnii
mediator
populatii
barbut
creditare
romanii
slabiciun
contactele
obiectii
berlusconi
##reira
prelungire
fugit
dragi
jankovic
austrie
ultran
teroristii
pagubele
prabus
povestea
pluralismul
elevii
microfinantare
uganda
ker
##gs
##ly
##vent
deca
caci
minele
gaseste
tad
consuma
parerile
stap
erasmus
mandate
etica
concentrare
asteptate
monitorizat
amenintarilor
crescute
ucraine
federale
iugoslaviei
infractiunile
tratamentului
regretam
uniforma
intocmi
abordez
vizibila
revolutia
ministerele
consiliere
echipamentele
dovedesc
incendiilor
autostrazi
izbucn
lingvistice
concediati
sugerez
catherine
perturb
pleaca
barbutov
aerului
atel
cort
rational
west
yil
##gor
demet
##cend
##erabil
reex
concomit
euros
privinte
##iden
fier
subordon
aresta
nevoit
imprej
sistemice
garantand
aprobarii
gazul
intentionat
condamnata
exacta
criticata
sloveniei
terenuri
pastreaza
acoperire
gravitatea
metodelor
avansam
ascultam
scolilor
dunarea
pakistanului
constientizare
bozidar
precautie
speciilor
kovacevic
##evalu
domicili
ieftin
cotonou
bis
##wit
##30
##otul
##usalim
listele
depist
autoturi
open
relatiei
tajani
intalnesc
micilor
garantare
intereseaza
interval
dovezile
drastice
regretul
slabi
eliberarii
curenta
egiptul
axat
fluxurile
termo
morti
tarifare
incendii
riguros
brevetelor
criminalilor
ierusalim
inscrise
caucazul
etnicilor
nerespectarea
contrabanda
odih
gimna
jacques
dand
ly
mur
minte
##cisa
##dente
aloce
##vez
bag
##endos
negru
condition
mentionam
##nev
controlat
indigene
individ
promovand
cincea
cuvantului
targul
exceptionala
reactoare
divizate
beneficiari
fotb
demonstratie
descoperite
prezidat
calificari
egipte
aeroporturi
izolare
dauneaza
litera
virtut
autocarul
gerb
prospera
84
edi
mah
sev
almun
raului
atas
##osul
pah
lire
minorilor
baie
greco
semnarii
benefice
invitati
cercetatorii
climatica
gestioneze
infiintare
profesionist
religia
caracterului
imprumutul
mancare
abuzul
natalitatii
electricitatii
intrunit
ignorate
expresia
spitale
descentralizarea
imbatranirea
dezechilibrelor
indrazne
invocand
reinstalare
##izeci
jadran
almunia
bet
ostat
##rero
incl
silaj
reuneste
unificarea
cust
problematica
celeb
elena
socialisti
haj
declarate
asigurandu
consultat
eliminata
recunoscatoare
monitorizeaza
zadar
religiei
excluse
identificam
string
redresarii
colegiului
miscari
fluvi
forumului
dezastruoase
demonstram
codului
cutremure
inghetarea
valoros
testelor
ziarul
transnist
tigari
labus
sectoriale
paternitate
schilling
silajdzic
harta
nica
terg
##vl
dejan
##stinei
revig
maurit
stic
##zak
accidentelor
poses
raid
atract
dise
pachete
cha
cij
actului
evitat
sosi
nivelurilor
organismul
invech
protectii
parteneriatele
retice
bazei
inregistrati
cinstit
recesiunea
insiste
iraniene
ferata
estimata
credibila
aminti
standardizare
spectacul
dimitrova
vicepremier
imunitatea
mutil
incendiile
considerente
declinul
feminina
rezuma
reclama
investigheze
umple
tsun
voastre
69
gord
loiala
rani
ume
##vendos
##ych
##ith
cuant
##veze
nedem
necontrol
ating
evre
puteau
celul
organizam
jucarii
solicitarii
oficialul
construirii
cercetarile
trist
acuzatia
repete
intentionez
asociatiile
entitatea
exacte
estimate
legifer
beneficiarii
dependente
inchidere
criticilor
igie
denumirea
protectionism
disputele
migrantilor
teroristilor
calendar
bananelor
demisioneze
fixa
favorizeaza
inumane
suspenda
ecofin
readmis
judecatoresti
wat
##san
##olu
##elect
##etz
##idis
scuf
##alizam
timpuri
teore
prezentului
proveni
chestion
investitor
partenerul
pescaresti
##alisti
exercitata
gestionate
orientarilor
asculte
excluderii
asociata
condamnate
sportului
remarci
acoperit
locuinta
genereze
lituani
ameliora
prietenie
cariere
indelungate
inchiderii
vaccinuri
dezavantajate
formatiunii
blair
socioeconom
lacune
restructurarii
aeronave
quo
meteor
kemal
neguvernamentale
boc
eol
hr
jand
##cp
##df
inl
copa
anc
##paduri
fireste
##zek
chri
misiunilor
produsa
discutiei
##ratele
adoles
sustinerii
dispers
sanitare
marime
integreze
declararea
exercitat
implementata
contraz
incheiem
apelurile
respinga
experientele
despaduri
stabilesc
##oliana
ungare
ungara
##chetelor
materialelor
credibile
perspectivelor
antira
obisnuita
suspectati
redactarea
reamintim
steagul
spectrului
antevor
riguroasa
onorabili
previziunile
pirateriei
interact
evitand
exacerb
trezore
benzina
naviga
surplus
antevorbit
96
iti
jusuf
pam
renta
zo
##per
##ms
##orteri
##inii
##inovic
marija
priz
start
prep
vase
spg
privi
presedinti
locatia
##gest
grupa
##jak
altc
card
conditionat
supran
finanteaza
simte
durabilitate
nimetz
aducand
semnaturi
micii
compromite
factorilor
neaga
ratificarii
platim
localnicii
conceptului
cunostintelor
argumentand
capturarea
lasate
instalatiile
fragil
combinate
protectioniste
cumpararea
influenteaza
fabricii
lantului
small
suprematia
pretextul
zahar
prilejul
inconte
rectificativ
incalzire
euroscept
inlatura
dnev
gy
rock
wal
##hu
##ozei
##gma
##fact
cade
##oten
impov
problematice
plane
dementa
##ciari
turcii
##ologii
##atiunea
operativ
furnizor
modificarilor
orientat
arestarile
regimurile
diplomatul
preocupat
verii
referim
traditii
mladjan
camion
inculpatii
procuraturii
speculatiilor
ranite
nedori
group
##chtenstein
submineze
emble
balanta
inlaturarea
laburi
controverse
distinctie
reglementeze
confederal
ostil
liechtenstein
jadranka
79
bbc
ema
pant
rod
ratelor
vat
zgu
##mil
##ntea
##icic
##seori
sepa
priviti
priveasca
servesc
pline
liberi
adeseori
liberale
ocde
operatorul
ridicam
coordonatorul
deosebite
constitutii
metal
contraprodu
proprietarul
indicatorii
separa
asumarea
inlocuieste
autorizate
tunel
goale
fruntea
suspectii
ignoram
tonului
dezbatuta
galile
dps
clasificate
alinierea
palestinieni
periclita
picioare
interguvernamental
rambursarea
pericolele
simultan
interoperabil
87
cn
cia
dora
ive
nas
rose
rena
strat
armat
racan
les
let
comisarilor
discursului
catal
voteaza
soren
calm
rusinos
reglementata
consecut
omor
permitandu
indicarea
vremurile
petrolul
cartier
progress
kurzilor
moral
echipamentul
intarzierile
atragand
latitudinea
italieni
termina
norveg
corespondenta
nefond
cinematogra
financiari
tuberculoza
tacere
decurg
incredibil
piscic
demetris
autoturis
fert
litor
##nia
##sare
##bon
##pm
##lom
alini
paramil
spate
compl
##dacin
conser
organele
greve
primare
expune
buzek
estica
termenului
proceda
beneficiilor
micile
reunificarea
actionand
recentul
deficite
planifica
individuala
romaneasca
unicef
reactionam
sensibilizare
sondaje
##ualilor
negociate
intoarcem
izolarea
tragedia
compensatii
nemultumirea
sustenabilitatea
comiterea
poloneza
fratt
tuzla
concomitent
galileo
kh
tali
##usta
##fun
##arket
##sis
stam
parcur
dorintele
autoare
necesari
includerii
principali
dispuna
onest
##ermarket
termenele
armistiti
sistematice
optima
simsek
formal
transparen
cuprinsa
alocare
controleze
ascund
executarea
confirme
sanatos
umil
achizitie
planificarii
transformam
donator
palestina
divergente
biljana
##latko
plasarea
nerabd
reaminti
echipamentelor
reafirma
transatlantica
spectacol
entuzias
disponibilizari
cutremurul
recensamantul
interguvernamentala
condoleante
tuberculozei
amandoi
carbunelui
frattini
ezita
hur
jas
rupt
sun
sda
##org
##ies
##ateri
rene
##silor
demna
##bah
decid
grupari
tratamente
actualizate
ruseasca
tril
adaugate
monitorizate
universitar
definita
intensificare
cartii
platiti
soldatilor
mesajele
poluare
performantele
simbolica
prelungit
exclusivitate
fenomenul
tentative
incidentele
garri
dezamagirea
apropiati
cenusa
proasp
containe
clasamentul
umbra
scumpe
pretext
prejudicii
maghiari
neoliberale
confuzie
volatilitatea
kazah
resedinta
transparency
miz
##oste
##sii
##po
##jo
##dite
deut
##iteaza
##rad
##olis
pris
preti
##otic
##ves
exteri
atlet
regand
ciudat
subiacente
servit
##ricul
gabri
mobiliare
indiciu
obligatiunile
globalizata
socote
baroana
sudan
corn
diplomatia
intensificam
electoratul
criminalii
deficitelor
cartierul
vizitatorii
incalcarilor
abuzurilor
municipalitatii
suspendare
elaboreaza
argumentul
schema
protestelor
irever
steag
inghetate
##contract
sufle
barack
demararea
iresponsabil
reabilitarea
ayhan
profunzime
columbia
tadji
prizren
bam
bash
cf
dile
hero
wald
##mani
inam
cuce
##pez
stral
padu
testul
confis
disparea
negociem
valuta
armoni
garantarii
exprimarea
nigeria
incheiata
concepte
pledeaza
universitatilor
definitiva
ganditi
elibera
estimarilor
accentuat
separare
frust
interpretat
reconcilierii
derulat
lectiile
clientilor
gradului
concureaza
combustibilului
vulnerabila
remarcabil
indelungat
revolte
revolta
revoltele
flori
ceremonii
hidrocentrale
aprofundata
munceasca
colap
##uropean
domiciliu
tergivers
##vendosje
91
erit
wo
##erar
##del
exil
exig
lukic
adit
urmatorului
totalit
cadea
##ried
munci
soca
mila
elita
stabilind
sectiuni
legislaturi
marim
procedam
obtinere
partiala
solutionat
asteptarea
destinatii
intermediara
ergene
folosirii
politieneasca
interzica
zagrebul
invitam
adaptat
actualmente
belarusului
minimum
avanseaza
inspectii
descrisa
flota
ochi
decisa
pornograf
exag
incorect
satisfactie
saptamanile
masculina
prabusirea
biblioteca
sandzak
golfului
furaje
avertismente
tadjikistan
ergenekon
gr
hoc
tintele
##astri
##gog
##sy
reia
remedi
##uia
maastri
##ciune
##urk
tok
dai
pachetele
turbul
gruparea
fondat
instruirea
patrati
muntele
aparute
extindem
venitului
amenda
ecran
incurajate
incurajata
fortare
cuvenita
##oboda
contractului
indicii
srs
prietenilor
oprirea
deschidem
municipalitatilor
calificat
avocatii
fizic
fiecaruia
fluxul
forestier
renuntarea
prejude
mentinuta
selectie
swoboda
flagel
cofinantare
foaia
respondenti
snsd
radiodifuziune
egee
multilingv
tetovo
maastricht
92
cs
han
kale
casei
laudat
acci
luarii
alegem
membrul
scul
minsk
existau
encla
##ivi
##ificarii
supreme
vorbiti
intelept
standardul
evaluata
pierderii
implementeaza
concurente
amenintata
cuprinda
diplomatie
aplicabil
entitatile
vicepresedintelui
apartamente
migratorii
optimism
##oulias
suspectat
instalarea
acelora
insotite
ivoire
eventualitatea
milen
news
cites
etnicii
provizorii
trateze
arbitr
zidului
pronuntat
japoniei
consilierul
financial
ulei
radacini
imbracaminte
papadopoulos
cosmetice
james
iveala
eoliana
ku
ksf
uk
##n1
##okovic
##govic
##ll
##rovic
mail
mada
cedo
exod
impin
##sche
rasim
economist
minunat
rezidenti
plante
actorilor
aglom
considerand
##inteste
fondata
numite
indrum
solicitarilor
capc
aflau
formate
alimentatie
dezapro
religii
sarbesc
accelerat
acelei
domeniilor
artistilor
descoperirea
sinceri
drumurilor
suspendata
fructe
nepla
suspectate
rudele
rosie
captura
diferiti
spiritului
eligibilitate
fabricate
fabricarea
accesibila
feminin
autentic
absorbt
predominant
neloiala
subsecretarul
socoteala
sculpt
list
mr
nd
##zen
##batice
##redit
deteri
##oria
##izi
atatea
lucrand
inceta
sprijinind
tradu
institution
salbatice
angajam
marirea
varstei
apropia
incurajatoare
contracara
convingem
atractiva
avertizand
ferrero
sentimente
predare
perspectivei
obiecte
examinate
largul
bariera
##ratis
suferite
axa
papoulias
activele
abandonat
burgas
fraudul
marfurilor
protectionismul
fiabilitatea
demersuri
berlinului
inadecvate
ierarh
restaurante
muncesc
pesticidelor
novak
bsp
cala
rum
##zan
##insul
cup
prota
progn
alune
neb
rasmus
##ereze
importa
solare
##atorie
semnata
bud
balkan
##manovic
intentat
cheltuim
facilitare
birourile
mareasca
condamne
premiera
exclusa
influente
verificari
intalnirile
kostov
trimitere
andor
poluante
pragmatica
insistenta
combinata
multilaterala
poloneze
protestatari
descentralizare
compatibile
##key
democratizarea
lukas
clauzele
madaga
rasmussen
elu
gn
mus
titul
xen
##gerul
dereglement
uneasca
##ubara
plut
abuzi
autorul
candva
opre
opuna
confort
##endice
##ologiei
terzic
190
bulet
egali
trium
promovata
bazandu
cunoasca
transferului
contrari
apeluri
judecarea
scade
distruga
profesorii
reaminteste
colt
valabila
interdictiei
dictatori
diminua
academic
prealabile
fumatul
superviz
costisitor
congres
neoficiale
productivitatii
atrocitatile
coexistenta
nesolutionate
selimaj
adolescent
bern
grij
gard
glas
kol
lut
marat
omen
##lia
##cko
##just
##anic
##ieva
##alista
caste
cupei
##spru
##osan
partin
gucht
celeilal
cadrelor
banka
muntii
implicit
iter
analizata
etice
castigarea
consulta
medicina
scap
riscam
refugiat
distrusa
bow
instituirii
djord
procuror
adaptata
aeroportului
argumentat
digital
patrimoniu
pensionarii
colaboreaza
genocidul
remarcabila
organelor
percepe
inevitabila
precadere
demografica
explozie
deliberat
multietnic
prestigi
disemin
celeilalte
97
arog
burn
dre
eru
fere
motri
##mer
##fur
##ceput
sist
sime
sed
##otip
neex
agenti
obiectiva
activisti
macedonenii
reprezentati
profitul
progresam
bunul
evaluarilor
furnizorilor
acuzatie
concentrata
incurajand
revenim
crescand
reconsi
urmarite
colaborarii
republican
materialele
predrag
ranit
reciprocitate
investiga
sugestia
protectionismului
turceasca
tarifelor
insarcinate
orizontala
paradisurilor
necorespunzator
incarcat
intretinere
wolf
belgradean
waldner
cpi
hox
kuk
nisa
zis
##hler
##esc
expe
##izari
intrevede
daul
chem
vete
transpun
##ders
mira
cetateniei
nationalitate
numitor
numerar
activeaza
centrelor
##ghi
durabilitatii
concentrandu
##ozar
alocati
160
liniilor
firmei
djokovic
jucatorii
caracteristica
casnici
confirmarea
romanesti
eligibile
foamei
plangerile
feroviara
ramadanovic
avionul
periodic
periodice
binevenite
disparitia
risip
rubrica
hondura
diaspora
planetei
eritre
motrice
bdp
hen
kro
mina
orele
##sind
##kt
##well
##orbi
##inat
##cev
savar
##utind
##enica
anat
cataliz
scorul
##alizari
cazare
energiile
punctului
dispuse
rezultatului
invitatii
surv
specializat
pretutind
lungime
usura
declarata
adevaratul
coordonator
peninsul
regimurilor
creada
intervent
concluziilor
universitare
ratifica
conservatoare
reinfel
ignore
rohan
impozitul
aliati
gratuite
denumita
campionatului
revolutie
remarcabile
stopa
preliminar
contabile
sinergii
lichiditati
ljubl
sportivi
autentica
economisire
veritabila
titluri
decedat
cernobil
alfred
pretutindeni
cc
dtp
esti
fuga
vlora
##siona
conch
pere
##memb
char
masurare
cadrele
piebal
intercept
solutiilor
ambitii
intreprinsa
reglementat
pescari
cheltuiasca
facturile
carai
definim
intermediare
criminalitate
distrug
platforme
circulatiei
canad
emil
sincera
autorizat
indemnat
optimismul
impartirea
reciprocitatii
imposibilitatea
brutal
avocati
scutire
combustibili
original
scandalos
mixt
turcesc
mentinute
romanesc
nesigure
filiala
coridorul
relaxarea
evaziunii
svetla
usile
aprinse
bitola
michel
fuele
macrofinanciara
custod
nicaieri
protagon
piebalgs
dup
ov
omi
##ht
##tea
##bro
destra
##leta
sumei
statale
eurojust
##uma
ang
vant
melod
##chen
ligii
scane
nevoita
traga
credinci
##lope
expusi
insumi
intelep
sefa
fildes
supraveghea
executive
electoratului
blocata
carton
zagrebului
lovite
localnici
audieri
lasata
dictator
satisfacut
inspectie
dimitrov
mixta
accentueaza
ascunse
invataminte
retinuti
sezonul
demonstratiile
##owski
svetozar
consortiu
motors
cheltuiala
foaie
fitosan
thailanda
lukasenko
burns
simeon
hold
ipa
uite
##rg
##ty
##riyet
##raf
nee
luptele
prins
raporteaza
domina
##ogene
clin
just
generata
transpunere
monti
angajatori
supermarket
antite
initiata
sfid
saraca
jurispru
arestarii
pledat
contributiilor
proprietari
deschisi
combina
ungar
camer
individuali
restaurarea
calatoria
semnalat
afganistanul
numirii
atribuit
accidentul
derulate
jef
saharov
ceremoniei
frumuse
deteriorat
bombe
derogari
controversa
trupa
nuts
inferioara
succinta
ultranation
baieti
tsunami
hoxha
caraibe
fon
id
##zam
##ee
inere
##orge
##ropri
##ical
##stenabile
sustenabile
aurul
nesf
##sah
europar
demite
calom
fondatorul
utilitare
expus
martor
cople
consolidand
culturilor
##nirii
provocand
sustineti
ideilor
pretin
programarea
tipari
stimulentele
modernizarii
gashi
cifrelor
monede
ratingurile
categoriile
irlandeze
austriaca
fluct
mediteranean
raspandit
forestiera
prizonierii
lemnului
danez
inradacin
albastru
atributii
remunerare
miezul
incorecte
atrocitati
indispensabila
helsin
infantila
veteran
sponsorizat
pelicula
trilater
kes
qua
tera
##gurii
##irilor
##diei
prodi
congest
seych
exit
compus
##upte
munitie
##bac
bio
generatia
activistii
reprezentam
publicatia
accesarea
undeva
ridicare
formatiune
amenintarii
delegatiile
exploata
neadecv
indicand
instituim
estimarile
##bour
credibilitatii
bucuram
colegiu
protoco
caracterizeaza
izolat
azore
koste
volumului
zilnice
auzita
neutil
congresului
privilegi
tragedii
explozia
olimpiadei
transnationale
coastei
intrerupt
inadecvat
derogare
renovarea
disproportionat
recasti
secretariatului
proportionalitatii
birmania
virtutea
hurriyet
holding
helsinki
seychelles
89
dul
valul
xx
##nilor
##cari
##rela
##atite
##orld
coinci
remedia
ausp
faze
spatii
locoten
transa
dorintei
incun
decidem
numeasca
efortului
plans
esua
ajunul
operare
textele
simplul
birouri
zapa
ascunda
reflectam
pierdute
distribuite
insule
miscarile
guvernamentali
poluatorul
incetat
simbolic
galilor
protesteaza
ministere
koha
doctor
potentialele
furtun
ineficiente
lingvistica
retinem
pavil
intoleranta
deplasat
jelena
dizolv
liniste
cocaina
aresteze
contrazice
fertil
reinfeldt
kostelic
93
cati
##bs
##iari
pristinei
ses
eurat
##imon
exca
mese
crestina
politistii
compensa
paza
pauza
disen
solului
solva
sosele
specialitate
permisa
inchiri
principalului
generarea
##erson
relua
limitare
accesa
adaugam
simtim
formala
raspunsului
solutionam
recentei
presupusele
erlis
reflectat
simplificata
ashraf
elementare
amanate
formulare
acceleram
iugoslavii
beneficiarilor
episc
stere
campaniile
ambasadorii
colegiul
periferi
lituaniei
muntenegrene
scandalul
chinezi
procurori
braziliei
olandezi
1974
descentralizarii
fotografie
imaginii
somerilor
stilul
transeuropene
binecunoscut
unhcr
honduras
euratom
azb
kamp
miza
sort
##vii
dema
seism
##iciune
polo
admit
dauna
subcontract
demol
protestul
afirme
urmau
##selea
angajata
expirat
sperat
consumatorul
generalului
adevarului
capitaliste
geost
transfere
constituirea
170
influenteze
discriminari
textila
petroliera
elibereze
hotarati
romano
colectarii
izmir
pilda
indreptata
drumului
brutala
spitalul
delicat
descrise
nicolas
clubului
indirecte
atlanticului
jurisdictia
defectuoasa
fasia
selection
gazoductului
indivizilor
distorsion
cambod
sulejman
reneg
antitero
mite
pion
run
##inen
santaj
##onez
premisa
impa
##uman
##chev
##ficand
economis
rezida
darfur
mik
dezvoltari
facea
viziuni
raspunderii
graba
patron
mars
mark
intreprindem
conducator
petrov
isd
adaugarea
studia
asigurate
indeplinita
tribunalelor
efectuam
medicii
completeaza
administratorii
influentei
asociatiilor
clarificare
condamnare
achizitia
extrad
morale
transferarea
elementelor
numitei
vecini
negociatorii
carbonului
interpretari
revenire
unanima
dominata
varianta
torturii
revolution
diminueaza
depozitarea
redeschi
comem
pasapoartelor
modelele
marginalizate
bilete
traducere
dezafectare
domestica
rabdare
polonezi
predecesorul
lambert
monopolul
neprevaz
komsic
bogdanovic
igiena
xenofob
contrariul
fluctu
azbest
cle
##hen
##dan
##ws
inst
rech
sudic
sezer
##ariana
arctice
diy
acordati
##anezi
demisi
actrita
elene
intermedia
croatilor
moste
motiune
design
indatori
ingrop
mediere
simic
alimentarea
jak
concureze
proprietarilor
drastic
denunta
stocarea
inech
producerii
sensibilizarea
abtina
cancerul
insistent
recurge
demersurile
prejudici
belgiei
mircea
bazelor
tragica
pamantul
pericliteaza
culmin
rezumat
venet
fragmentarea
conexe
ecosistemelor
ciclu
malays
districtul
aptitudinile
conducatorii
recompens
exploateze
anonim
neconditionat
coloana
elicopte
umerii
pamuk
kroes
ate
bot
gor
joa
##dice
##ymp
##atovic
##uli
invad
##inilor
sir
canta
consp
##iljana
##omen
trecand
contrare
chis
chile
vehe
votand
informatia
albe
singurii
estice
marcata
inval
bosniacii
corpul
nordice
analizarea
violent
documentare
diferen
formulata
jurnalistul
srbi
omologului
vanzari
restabile
atlanticul
caracterizata
petrec
asasinarii
autonomiei
opereze
accidentele
olymp
disputelor
citesc
palatul
harbour
reinto
povesti
seculari
straduim
livrarile
coborat
phili
clauzei
vigilenti
poezie
furajelor
izbucnirea
egiptean
vetevendosje
duplic
camerun
zapada
diyarba
vehement
bie
blic
ere
tind
##hia
##fet
saselea
intin
##amentelor
fiat
fixe
##anas
##ineva
prinsi
##ody
##anek
catalog
chr
chiri
suburb
infapt
directorii
192
bulgarii
conveni
gradin
asistente
socialista
nava
victor
furnizam
acuzate
sporind
anuntand
omg
observatorului
referendumuri
accelerata
vanzarilor
calatoriilor
bildt
spiric
derulare
##burgh
intampinate
mutat
tripoli
artistice
inspir
prosper
iminenta
arabia
kargazstan
cafen
altcineva
coplesit
beta
fati
iros
mw
malul
will
##uos
##uge
##cime
ingra
invaz
##lete
##ance
##iciile
lav
##olic
mamele
dinspre
sumb
precisa
nete
##erie
vaste
ath
economistul
pagin
tarife
rezista
asimet
cadre
continente
##matricul
incur
generi
energiilor
gruparile
calma
gauze
valut
progresiva
limaj
anula
##ghe
culturile
intalneste
stradu
pasari
##ombusti
contracar
presupusul
adresam
exportate
##fabet
gasiti
interim
simplifice
platita
armonizarii
suverana
bogat
matt
armean
delim
andrea
tito
bill
dezechilibre
adriatice
facilitarii
groen
nemultumiti
magazin
hoteluri
pc7
inadecvata
indicele
atenuarea
dezafectarea
evaziunea
disparitie
trasabilitatea
minunata
nocive
cvarte
toxicom
chiru
osetia
prabusit
##cendenta
padure
absorbtie
catalizator
fitosanitare
auspiciile
stereotip
chisina
gauzes
jov
mute
soare
world
xi
##upe
##out
##tom
##jut
##veni
##dor
dest
sarit
##izan
##izati
fao
arb
##maz
podul
rasc
202
modurile
saudita
probe
locatie
subz
guvernari
opuse
prezentarii
genit
gruparii
informata
angajarii
supuna
limitam
procedeze
regionali
bazinul
salutata
portului
candida
pregatitoare
crescanda
aplicabila
intensiva
avertizare
interior
hotararile
dimensiunile
detinem
americanii
judecatorul
tanjug
tranzaction
certitudinea
rutelor
cotidiene
incluziune
dezvalui
arhive
academiei
subliniate
licente
dezamagiti
petrecute
corporale
tragic
pamantului
relansare
musulmanilor
ziarului
farmaceutica
reprodu
reproduce
##arismului
scotia
radacin
guinee
suporterii
resortisantii
pirateria
oponentii
laborator
argentina
europarlament
750
cim
cord
oa
oua
pne
tor
##areze
sufere
suprim
eurovin
exha
pargh
##sas
valea
novo
##icevic
privite
perfe
discret
solara
tes
posibilitatilor
majoritati
liberali
deval
##ezza
intelegerii
afectand
##verse
inregistram
plastic
##ensive
universitate
potentialii
stimuleaza
readuce
vietilor
realitatile
finalizam
profesorilor
oliver
temper
rauf
dell
comportamentului
slovaciei
inchisi
intoarcere
diverg
interdictii
tinute
dosarul
inflori
incapacitatii
desfasuram
antreprenorii
neglijenta
gripei
topol
despagubire
recensamantului
secundar
condoleezza
prilej
oceanul
muncitoare
##lodui
implinirea
kozlodui
abilitatile
nepotriv
sferei
brigada
biocombusti
reexamin
piscicole
entuziasmul
cartonas
philip
eurovinie
biden
hill
mubara
suna
uzat
venite
wis
##ratii
##np
##nska
##citi
##jkovic
##xh
sap
##rus
reevalu
##steaza
##eniti
##illi
pev
als
##umul
##mantul
polari
politist
miner
ducand
anih
##esty
incas
biologice
infir
sarbeasca
liberala
solutiei
profitat
##zbe
completeze
medici
trialog
salutand
portal
simptom
constitu
revoc
plecarea
convingerile
mics
scaderii
aerieni
presupusi
duratei
fermele
instantelor
irakieni
diviziune
evolutiei
fals
studiilor
islamul
materiile
290
natala
detinutilor
eficacitatii
andy
sondajul
african
instalatiilor
fragile
defris
combustibililor
dezamagire
spectrul
alarmante
accesibilitatea
constrangeri
memoria
artefact
suspende
rezistentei
descurca
preventiva
privilegiat
severa
eoliene
cfm
rundei
mubarak
94
gel
gordon
kraj
pran
##ika
##brala
##yo
##anie
lacri
inta
secreta
##mes
anna
note
##alai
transil
votata
statala
productiva
cetateneasca
externi
patro
reprezentante
obligatiei
transportatorii
##had
socat
ziarele
sudanului
vocile
numesc
incurajator
cuvine
tensiune
constructiile
potentiali
contractante
##biliara
scriitor
investigat
vazute
invitata
lovita
abuzului
cautati
bed
rutele
tunisi
##fiind
incetini
gratuita
raspandite
supravietuiasca
investesc
reluat
confirmata
fotbalului
1970
spectatori
restrictionarea
frumos
prudent
antrenorul
alarmant
directionate
rasis
prerogativele
sarbatoreste
imbogati
pitts
anglia
amnesty
##vljevic
gabriel
ukip
topolanek
koci
zem
##ualului
##hl
##oua
##gea
##lla
##jovic
##cern
cotei
mame
intocmai
intinde
sever
##lava
##ionali
vese
kosumi
##ziva
productive
stabiliza
jucam
semnare
numire
generatiilor
reprezentarii
solicitata
putinele
majoritara
corupte
alimenteaza
sustinatorilor
incepere
depasita
determinarii
criminala
comandat
ivana
austriei
avansata
promisiune
divort
papua
accidentului
dureroase
impiedicam
bucuroasa
veniti
interguvernamentale
sceptici
favoriza
prelucrarea
prelucrare
obtinand
tacerea
intemeiate
platformei
conventiilor
exploateaza
paragraf
cibernetice
teheran
heroina
diyarbakir
fea
fani
lenta
rud
satele
uzbe
##uoase
##az
##atero
sekeri
neint
nefiind
acuta
sps
figura
subcom
serge
evitata
imbunatatesc
actualizarea
boskovski
deschid
decern
sudice
costului
clasei
ingrijiri
aprobam
modificarii
bunelor
ocupatie
inceperii
filmele
somerii
eficientizarea
hotara
concurential
administratiilor
judeca
cheltuiesc
compromisului
adreseze
intensificarii
urmarind
ferreira
denatura
iesim
inlocuite
inlocuita
impartasita
federala
materiilor
ahma
sentinte
vamali
cunoasterea
##sso
indemnam
andre
lovituri
rue
axeze
sotul
daunator
teatrului
dinamic
aparitiei
facilitand
kallas
echivalent
percepute
perceputa
contaminare
reinnoire
sds
persistente
preventiv
rupel
zapatero
transnistria
meteorologice
christian
bamir
capcana
peninsula
wisner
glo
herman
kir
nam
puri
sul
##abile
##tovic
##kal
##yp
instig
laptele
dink
station
##oma
##ocratice
neuro
acredit
##ulturii
spatiile
comisarii
##odat
pasiv
liu
vestea
potabila
orf
represive
votati
fetele
##emin
grupare
activistilor
albinelor
mosch
motiunea
indiei
reducerilor
bucat
##ierelor
scopului
gestiunea
cercetarilor
ideologice
colegei
pierre
ingrijirii
garantiilor
extremisti
lopez
reuneasca
modificam
coordonari
observatorilor
ordinara
destinatia
redre
managerul
mobilizat
oferiti
fischer
parasesc
conservatorilor
ramasitele
artistii
pedepsiti
beneficiare
transferurile
infrastructurilor
drogurile
atribuite
autonoma
impartit
negociatorul
neput
lituan
muntenegreana
plasata
originala
dinamice
delicate
brown
spectacolul
turneului
arbitrare
ineficient
productivitatea
managementului
bordul
intimidare
reabilitare
consortiul
risipa
reciclarea
usilor
audiovizuale
convingatoare
evolueaza
neproliferare
camioane
autodeterminare
kerma
revigor
scufund
nefondate
malaysia
rascru
perfection
sekerinska
cita
dalai
ford
zar
##jon
inmor
laud
##sire
intareasca
##arif
stamb
fasc
vag
spa
urcat
dirij
complica
compatri
temele
demne
continute
agres
discutand
procesarea
semnalul
adoptie
motoare
decizionale
relatat
planuieste
##rolog
afacerea
raporte
marci
stig
108
voivodina
castigator
cursurile
anteriori
premiile
atractive
definitii
explicam
pregatirilor
contractual
desert
constiente
drastica
introduc
tranzitiei
tranzitorii
temerilor
divizarii
slovena
studieze
terenurile
cunoasterii
steiner
preconizat
preconizate
consensului
notiunea
muam
optimisti
performante
inaugurarea
investirea
automobil
aviatice
scutite
desemnarea
indepartarea
scandaluri
accentuata
restului
datorate
invocat
indispensabil
multietnica
hranei
pompieri
aplaud
dervis
semifin
incipi
ljiljana
embargo
lazarova
mauritania
sticla
prisma
dezaprob
transilv
kermabon
bob
fried
iri
kovac
mori
oas
penit
tona
wil
##mila
##roup
cohn
##aliment
treizeci
comen
neinteles
app
apic
atitudini
adnan
multicult
##gaj
moder
importat
dorite
incarce
dispret
conditionata
investiti
ofensiva
parent
transportatorilor
marm
marcarea
verte
invitate
socialiste
cercetator
reuniunilor
amenzile
inovatiile
facilitam
atragem
##roglu
clarificari
structural
mobiliza
distribuire
ucide
sentintele
analistilor
erorile
indeajuns
brutale
avioanele
inflatie
derularea
neregulilor
flut
sacrific
constatam
blasf
arbitraj
dobandit
monument
infrunta
distinctia
resortisantilor
memorial
brcko
obligativitatii
nutrit
perceptia
nejustificate
virusul
sarbatoresc
sterline
maturitate
gheata
readmisie
dilema
daianu
radacinile
pittsburgh
moschei
boi
miile
##hie
##ean
##tv
##vare
##kin
##rik
dera
inmatricul
caselor
##utt
##enci
intri
intune
pesti
vast
vaselor
noptii
apendice
##dire
dreptatii
asez
##tail
mili
greutate
energii
sectiune
plangere
ramasi
191
transportate
lips
costat
116
struga
concentrez
brusca
porturi
oms
filos
recunoscatori
completarea
pacientului
sportul
armonizata
extradare
divizare
realitati
intamplare
adunari
pastrate
abuzive
##bank
obiectiile
calificati
televiziunii
interzicere
comporta
ofertele
axata
capturilor
prelungita
satisfaca
focuri
sentimentele
biodiversitate
mortalitatii
sugestie
arctic
##cendent
insemne
redefin
succesive
alinia
imobiliara
palestiniana
preferintele
poverii
evoluat
##que
aptitudini
traficantii
inaltime
audiovizualului
trajkov
infrangerea
iordania
neobisnuit
dalli
portugheza
djordjevic
matthe
inmormant
blasfem
cule
fur
fict
jura
odm
venim
##ror
##gla
cash
##onului
cehi
##secv
##oti
##omina
foca
rasa
##laku
regres
##entez
guvernante
masinile
arena
libieni
##sibila
devenim
continuand
ambitiilor
anuleze
intelegeri
115
concentrate
implementam
tribunale
consultarile
functiei
facilitat
corespund
progreseze
rezolvarii
dificultatea
jocul
reflectie
verific
prapa
falsa
impartasi
bucurestiul
contactul
stein
infractori
dependenti
scolii
copilul
slovac
fericita
distante
rroma
profitabila
reluate
bendit
redactat
dimitrij
depozitare
letoniei
frumoasa
insarcinata
imobil
scenarii
alerg
autentice
dispozitiv
neclare
paradisurile
cultivarea
foametei
spalarii
trajkovski
persistenta
bitum
nepotrivit
soferii
neincredere
microintreprinde
neliniste
lituanian
ljubljana
reintoarce
lavrov
gam
harm
jar
kan
kad
opta
rin
##by
##kia
decret
coburg
##alta
revi
conferit
sesi
prevale
nepe
faci
adverse
moderat
fierb
compusa
problematic
subsah
abate
votarii
bact
grena
discutarea
juc
calatorilor
adoptand
roluri
intreprinz
##ght
obligatiunilor
mondiali
coordonam
plac
consultarilor
recomandarii
corespunda
excludere
##hiri
instabilitatii
armoniza
remarc
bogatia
separarii
calificate
detinutii
irlandeza
tabele
proportion
prospere
paduri
1984
comercializarii
spitalele
aniversarea
pilonii
pornire
arheologic
robertson
lingvistic
tutunului
datorat
civilizatiei
pesticide
scriitorul
muzical
seminar
vulcanica
eventualele
reintroducerea
sloganul
nesatisfacatoare
ucrainean
confiscat
fortareata
anatol
coincide
redeschiderea
cimiti
ruecker
eye
narc
trop
vers
##cc
##covic
##itura
caritate
##vere
comentez
##erilor
anche
rai
afili
declansa
urmarea
raportarea
evitate
kosova
opusa
greutati
##roljub
ajungerea
eston
marsh
imigrare
##versa
analizei
incurajati
acceptati
drape
israelieni
atacului
cartilor
creditul
vizitatorilor
ambitiosi
canadei
ahmeti
intarzie
donatii
bogatie
municipal
olimpica
occidentul
standardizarea
slovaca
dominanta
panica
inegalitatilor
combustibilii
aparatorilor
confirmate
rugat
nicola
regizor
proactiva
prevederea
fratii
invinge
nominal
renovare
fusesera
elevilor
muzicieni
masculin
mentinand
ilir
refacerea
insulta
atomica
regasesc
tiranei
contemporana
ioan
teoretic
sufletul
prejudecati
ed
fy
fratele
gon
ghet
holo
jen
kam
qat
ratiuni
stele
usc
##har
##gele
deget
##anovac
sasea
proemin
may
mamelor
concursului
##ilo
stire
statiunea
parcul
##erile
figuri
poste
posta
leon
##elle
##chim
regele
multimea
dezmemb
depre
represiunea
abha
autorilor
curti
vizei
sarbatoare
informeaza
doream
primarii
##atoarele
valului
implicand
motivate
egida
pasare
corectarea
alimentat
lansam
demonstrand
campi
observatorul
convingeri
scapat
exclusi
preocupata
##hija
favoare
creditului
sofistic
limbaj
vorbitorii
emir
certificare
##aduri
##begovic
##oke
proportia
audierea
georgieva
weber
dosarele
scheme
lectia
pensionari
vinovate
neconceput
agresiv
inghetat
protestatarilor
blan
provizorie
imbatranirii
artistic
deriva
inrautatit
echivalentul
icg
brevete
thom
codificare
brun
comerciantii
veritabil
bonus
seceta
apreciere
sutanovac
gjorge
gazoductul
indoielile
exagerata
economisirea
kaletovic
pavilion
neprevazute
chisinau
vertebrala
prapast
nepedep
dro
fanii
gui
jat
jun
tud
zisa
##rs
sava
samar
laden
##aming
##mpet
auzi
vaclav
atala
##eneg
dezin
catch
scuz
locuieste
plumb
demara
orala
foraj
agit
procesare
interc
off
##sko
provocarii
distra
ideala
123
sefcovic
inregistrand
##jevac
teritoriilor
placea
varsov
functiilor
reusite
recunoscand
vinuri
discriminatorii
canal
sofiei
investigate
insulelor
pierderilor
conservatori
japone
scoata
reactioneaza
audiere
birocratic
inconsecv
amelioreze
fatos
articolelor
accentuez
tibetan
masacrului
alarmanta
trenul
razboaiele
talent
fructuoasa
portofol
intrevederea
denuntat
traverseaza
recrutare
preferential
aviatic
william
fyrom
ox
vond
xvi
##ualii
##hal
##tari
##jer
##ulea
sasa
maini
cet
##imenta
exced
nega
artei
afil
##ratie
economistii
trebuiau
abru
munchen
adoptati
facuti
193
inteme
##sky
inaltei
cercetatorilor
pretind
conferite
gestionam
gestioneaza
administratii
achitat
renation
refugiu
instantei
simplificarii
hotararilor
incercati
realoc
suediei
comitologie
refuzului
profiturilor
donat
capitalismului
puneti
izet
anticipata
delta
periferice
optimista
shk
suedezi
mediteraneeana
tinuti
nasterea
bilantul
batut
sotii
dureros
investeste
lecturi
tentativele
tolerantei
curajos
fumatului
taberele
tripartita
silvic
razboaielor
colaps
infantile
telefoane
amandoua
exonerarea
nefavorabile
taliban
griji
olympic
bedrana
campioana
vondra
550
cm
eroglu
gent
ib
line
nace
tert
todor
tass
vici
##rc
##nos
##oge
##ete
##via
##vata
##inoasa
##utice
##ille
anver
arsen
##unesc
legali
tob
plur
potoc
propice
indemna
dispara
2018
eficienti
expusa
suparat
antice
antid
anulate
construieste
ego
claude
simpson
varful
deser
dubi
dubiu
blocuri
hotarate
vizitele
vanzarii
stocare
donatorii
unitara
##cilia
pedepsirea
metodei
candidaturii
incetam
frunte
intruniri
regretabila
abandonarea
intocm
combinat
muzeului
recupera
redactor
dezamagita
imunitate
ofiterilor
kalfin
secundara
informale
impartial
ministeriala
plafonul
petrovic
conventionale
exacer
##hardt
manastirea
concetatenii
extractia
varstnici
gordana
navigabile
deutsche
colapsul
kesh
devaloriz
infirm
rascruce
apendicele
anvergura
650
kiev
mia
rui
rationale
tf
##esti
rean
##rami
##ension
##sile
concur
##iss
statii
##otica
##aras
improb
anal
ardi
mega
urmelor
multim
paz
raporta
minuti
statu
baga
cetateanul
prezentati
recurg
tratativele
popovic
cerul
motorul
imbold
onora
finantam
mentioneze
inversa
petitie
nap
had
optulea
cheltuirea
documentar
facilitatea
pledo
concurenti
##ozitatea
amenintati
formale
intram
instituite
investigatiei
estimari
impartasit
salvat
terenului
bucurestiului
ramanand
sinceritate
transferati
beh
egiptului
vlah
performantelor
frustra
surprinde
aviatia
placerea
persecutati
corporatii
inchidem
masacru
netarif
succesele
pornind
plangerilor
adance
situri
progresist
holkeri
coridorului
confiscarea
filipine
recap
##uropeana
separatiste
beres
subterane
consistenta
inginerie
nereglementat
pertinente
stalin
tranda
exagerat
gnss
charles
incunun
mitev
constituente
marshall
netarifare
kor
mh
meni
muga
uig
##udata
##tat
##dc
##atati
##erarii
cadem
realitatii
##olli
imped
asiei
teorie
orhan
confere
inad
##jad
cooperat
refuze
primord
indis
ramush
marian
mediate
marcate
parteneriatelor
trichet
petit
voia
optat
protejand
mandra
mandrie
##alistii
teribil
##andei
inovator
gestionata
campul
contrast
semnatare
premierii
##fax
iranieni
investigatiilor
praf
profitand
transformarii
posibilelor
natal
artific
roaming
radovanovic
mitch
identice
afganistanului
intruneasca
competitivi
muzicale
aviara
deruleaza
casnice
mortii
textilelor
compensare
revolutiei
persecutarea
consiliile
depozitele
promitatoare
influentat
particulare
compatibil
antreprenorial
interconex
neoficiala
transplanturi
amprenta
sporesc
speciile
razvan
supravegheata
inchisorile
exagerate
sclavie
compasiunea
nelimitat
inarmati
roade
conserve
transpunerii
penitenci
varsovia
tfue
mugabe
bolog
g8
von
voc
wall
##itand
lacun
proxim
prese
impovar
factura
##eles
fibre
urani
perpet
scoase
masurarea
miroljub
greut
transpuse
motto
mario
##canin
intrebati
alegerii
marg
inteleasa
motivat
invatate
stiind
opiniilor
nav
naval
teribile
castiguri
taxare
##less
reuseasca
revenind
eliminand
cuprinsul
disponibilitate
frontul
186
dubii
meritul
indiferenta
salariului
sugerand
birocratica
macroreg
surprinsi
abandoneze
##ciuni
haitian
profitabile
pandem
propunand
redactorul
adriatic
##selj
nereus
auzite
renumitul
psihologica
imbatranire
mostenire
impresionanta
echivalente
deplasarea
disproportionata
resortisanti
intretinerea
mihaj
pulaj
incendi
consacrate
cibernet
anticipa
austriece
beth
inclin
proaspat
frauduloase
erupt
tunisian
boiko
bituminoase
holoca
samardzic
bologna
450
aak
hy
hit
jel
jovan
lul
mist
tam
tinde
ww
wire
##tica
##cului
##cite
##mon
##fo
sib
saptea
##aliilor
cavic
reori
##ondere
cedeze
seselj
##ilt
##omateri
##reaca
exces
impro
fanta
spatiilor
dog
poor
fostilor
guvernator
sole
necesitati
specialistii
adoptiile
ajutand
referea
utilitatea
provoace
moody
expir
supar
continuati
adaptam
conformitatii
##zbol
simon
analizand
plaja
documentatia
observare
depasind
acceptare
exportator
executii
exploatat
tarm
crucea
jocului
stanis
##gener
creditorii
##urosi
280
intamplator
cantat
islamului
automata
reales
asocierea
cunoasteti
roh
adaptarii
bec
autorizatii
antif
numitului
respectivei
shalit
karolos
inaugurare
fericiti
aviatie
roti
transmisa
meciuri
desfasurarii
vojvodina
academice
aparatorii
audienta
falimentului
evidentiate
spectru
eligibili
dobandi
neoficial
concertul
flotei
corespondentul
alcatuit
condoleantele
supremat
nejustificata
reciclare
dezarmarea
euroobligatiuni
regularitatea
depozite
artificial
sfarsi
colonelul
dispersie
kazahstan
madagascar
restabileasca
bielor
hillary
zemun
filosof
subsahariana
narcotice
intercult
mitchell
mora
tint
##gua
##ezi
##ija
##fat
##stilor
sint
sav
lagar
##otis
imput
powell
##uraja
##div
parlamente
moda
cristian
repres
necesarul
schimbate
descuraja
terta
cardi
exporte
insum
continuitatea
competitii
imigrarea
gestul
petreaca
suplimentari
facilitatile
atenua
verificate
vechilor
instante
seria
accentua
limbajul
evolutiilor
profitului
salvam
paradi
canalele
raspande
trimisul
intruni
batt
constientizarea
radiotele
tony
pensionarilor
licitatiei
diversificare
cairo
capitolele
compatibila
stefanovic
sezonului
autobuze
democratizarii
holbro
icd
prezidentiala
rromii
esueaza
livrarilor
reitereaza
##ness
patrun
platformele
inexist
sirian
gigantul
cantece
angliei
agroaliment
portofoliul
paradoxal
prescol
ingreuneaza
mahm
incontestabil
autoturisme
straluc
eritreea
interventiilor
conspirat
transilvania
dg
imn
ofic
pv
tu
xia
##zarii
##azi
##nock
##th
##mina
##kta
##yi
##xt
##xhi
##itori
##ietate
##ates
intare
prip
##sect
fiica
##zelor
vise
depinda
##asii
evan
faceau
recal
infatis
funer
sectii
salbat
supun
banc
banch
populate
##creti
distins
114
procedeaza
optional
increzatori
analizele
numarandu
nationalismului
persoanei
anunte
forteaza
hotari
monitorizata
cuprind
vreti
exclusive
explicita
exploatate
interioare
personalitati
extradat
transformata
intarzierii
transferata
normalizarea
impozitarii
poduri
scolare
izolarii
burse
recurga
restrictioneaza
genocidului
craciunului
ciocni
inspira
onorat
conexiuni
homosexualilor
montane
orizontale
incorecta
pnl
restrans
realisti
byty
seecp
escaladarea
nanotehn
cuiva
deranjeaza
tulburari
extremismului
interferenta
familiala
interdependenta
pahor
zguduit
geostrateg
venetia
##direction
wireless
radioteleviz
cd
kra
krem
kiri
muri
olig
##wo
##icala
castro
redirection
unitare
pekusic
##imb
##otii
vasele
mes
##istice
limpe
##ube
vir
sosesc
febra
transpune
imbol
sperand
capatul
##nez
vorbitor
reglementam
125
intalnim
subiectului
folosul
nationalista
comunicari
diplomatiei
modest
excluda
distrugerii
strange
canalul
simplificam
religiosi
totalitare
240
accelerate
braz
kurzii
profesie
incalcand
inculparea
##itudinilor
reinsta
calatoriei
minoritar
mathie
calificarile
intelegeti
restrictie
cameron
cartel
tinuta
ignorand
drago
abandonate
variate
originale
livrarea
ministerelor
zilnica
visul
pronunta
echivalenta
satisfacerea
##ways
explorarea
ciclul
indispensabile
parcului
perceptie
desprin
rebelilor
ilicite
discrepanta
investigheaza
gheor
revitalizarea
tractoarelor
caspica
prematur
groaz
vesna
grecesc
nicholas
timpuriu
antiracheta
nedorite
nesfarsit
destule
subzistenta
izetbegovic
tassos
indiscut
holbrooke
mathieu
aev
ek
h5
hys
kim
karic
mali
rul
sina
she
##zati
##zitate
##cov
##jet
##mand
##leti
##ersul
caduce
##sevic
nesemn
neimp
spid
file
prinde
atitudinii
##iona
legen
scan
##voi
trebuiasca
libiene
##eski
cresterile
inab
inclusi
##orac
provina
ataturk
finantarilor
rolurile
perioadelor
indeparta
balotaj
104
nago
incalce
furnizand
numere
exercitam
circ
consultarii
concurentiale
confruntarea
irakiene
criticam
armonie
reformeze
repetam
epis
ambasadori
proportionale
asasinate
cunoscuti
logistica
abandonati
aparenta
hartuirea
johan
consecvente
zborurilor
curajoasa
troicii
evidentiem
renumiti
sinergia
monumente
onorati
infrunte
atenuare
reconstruirea
rareori
basha
lukash
confidentialitatea
targului
vigilenta
incendiu
contabilitate
plantelor
doreau
beqiri
chavez
invechite
complot
neutilizate
harms
aevmp
nagoya
gian
mul
##sol
##bata
covic
stia
alum
##urna
afgane
disi
##odra
legend
daci
##upl
demult
extind
status
comunice
mentiune
##greg
disperata
provenit
informala
liberul
tase
convenita
valoreaza
##gheze
verzii
barone
##ilian
ridicol
extremistii
formatiuni
emisie
exercitii
suficienti
castigand
explodat
facturilor
vanatoarea
pregatiri
ert
clarificate
determinand
imprumuta
purtand
deplan
meritele
flexibilitatii
prada
complexul
restante
echipamentului
imbunatatind
turcilor
amintiti
comandantului
occidental
vinerea
atribuie
dedicati
demonstranti
testare
dominate
clipa
meciului
marcajul
inegalitatea
academica
distributiei
disparuti
dobanzi
sovie
ortodoc
vulnerabilitatea
incertitudinea
cutremurului
retinute
airways
impresionant
aprofundarea
rambursare
difuzarea
daunelor
codificata
comercianti
ministeriale
readmite
bolnavi
nanomateri
stadionul
neconditionata
computere
ipocrizie
reprimarea
administrarii
neajunsuri
dezbata
gimnastica
prepondere
jurisprudenta
mostenirii
pranz
matthew
anchetei
battisti
spidla
dc
jol
miere
osi
ozon
ratat
sop
vole
##ziei
##mint
##ricile
##cevski
camin
cumul
proe
##sik
##deli
alak
##izel
##izez
comisa
regas
obrad
tir
finali
finalizare
##dad
dureze
tech
demareze
schwa
##gang
miller
confid
decise
utilizari
directoarea
banja
continuari
competent
adauge
oficiu
intreprinzatori
iliesc
mentionati
fundatii
marco
imprevizi
hab
corectitudinea
apela
colegisl
terorii
etn
probabilitatea
consultatii
profesionista
alocam
achita
intensificate
neaf
iraniana
drazen
blocati
colaboratori
pierduta
mobilizarii
agende
felicitarile
reutil
precizie
progresat
oslo
apartament
federatie
srdjan
bogatiei
acoperind
pedepsi
municipalitate
radmila
producem
impozitului
ascultati
etichetarii
pragmatice
##schror
simboluri
instalat
abandona
aruncate
transmisie
contrara
fluxuri
house
uzina
gardian
multianuale
necdet
falimentul
arheologice
joseph
investite
pasapoartele
interinstitutionale
retinerea
manipularea
alcatuiesc
tulb
interconectate
confederatia
inuman
telefoanele
repararea
abrogarea
intarziate
turkmenistanul
paragraful
coincidenta
albertini
indivizii
tabloul
defaim
yilmaz
odihna
consecutiv
custodie
kampschror
srbija
fatih
groenlanda
eurovinieta
cashman
inadmi
lacunele
kremlin
lukashenko
iliescu
dil
hug
kw
vil
##ep
##ifica
##lnis
##jar
##jen
##fl
##furt
##wer
inm
##cek
lap
promise
##sig
sumelor
##valeaza
fifa
##alaj
dintotdeauna
##ogen
##bag
milic
comunisti
recupe
incapat
ajutati
respingere
##rism
sanselor
moham
salt
grabit
procenta
medierea
furnizata
mandatele
teribila
##hev
ocupationale
tipic
zeel
dovezilor
frontal
indicatorilor
confruntare
posturilor
structurat
criteriul
##dinejad
zecea
felicitam
realmente
##janin
belarusul
eficacitate
telefonica
educati
handbal
gollnis
obiceiurile
impulsul
prietenul
olandei
subliniata
achizitiona
fraude
descriu
scrutinului
imperialiste
autostrazii
ameliorare
doctorii
imaginile
rezervate
apreciata
intreruperi
scoaterea
constrangerile
taiwanul
rezidenta
certificate
traficantilor
complementare
moldove
fabricile
expulzarea
bolnav
adulti
geopolitica
concetatenilor
conformeze
zdrav
recrutarea
decesul
necompet
elvetiana
semestrul
atractie
nedemocrat
paramilitare
exteriorul
wolfgang
demisiona
limpede
hyseni
schwab
gollnisch
bov
brat
dit
emp
hus
kl
myan
zann
##opt
##rey
##ors
sac
##alan
reali
unicul
curi
##dev
necin
mess
pos
raza
leinen
amster
parlamentarul
dezinte
avent
mingea
platii
asiatice
schro
clinica
miste
numitelor
programa
onoreze
masurii
respectati
antip
##ghazi
marc
109
pasarile
controlarea
indian
amendarea
adevaratele
capitanul
optiunilor
educarea
personalitate
orientului
interviev
participant
completat
deserv
descendent
condamnari
senatului
pacient
verificat
vechii
insecuri
hotararii
interzic
justifice
cantitatii
islamici
conservarii
imigrarii
grecilor
nefericita
ofertei
rudelor
dictaturii
scutirea
fenomenului
sindicate
derula
registrele
anchetatorii
intelectuali
benghazi
flot
migrantii
devastat
doctori
alexandroup
mostenit
transnationala
##ibz
pluralismului
bunavoie
creativitatea
scriitori
reinstalarea
recompensa
rasturnarea
intrevedere
intarziat
dispozitivele
gigant
peisajul
frankfurt
isaf
pakistanez
depozitelor
indexul
proliferarea
reticenta
provenienta
vatam
lesb
demagog
cafenele
raufoglu
raporteze
degetul
##generative
h5n1
sovietic
alakbar
confidentiale
myanmar
zannier
amsterdam
eva
fract
krag
kou
oomen
punt
##tis
##jell
##jten
##kas
deee
##lem
##inea
##itis
##icat
unsprezece
concreti
sediu
sediului
stamp
eurobar
##sak
fajon
anad
vagi
figu
##gaard
mini
miniera
ciolos
subie
plo
actorul
represiune
consulte
darko
opusul
schimbata
recre
biom
interreg
prover
tratativelor
pian
antim
convorbi
progresiv
ambarc
pestele
##ney
benedict
motivata
egnos
civice
simtul
recentelor
castigam
##kay
##kakis
anuare
producatorului
apelurilor
profesionistii
132
achite
erhard
autoritare
justificarea
transformate
dusman
tanja
examinarii
campaniilor
malt
africani
prospect
victoriei
dezastruoasa
microent
izolata
comercializate
sindicatului
telecomunicatiile
subminat
dezechilibru
manifestare
gandeste
accentuarea
cehia
topal
atributiilor
nenad
palestinienii
antreprenoriale
situa
georgievski
devastator
gospodariile
ramadan
semestru
multietnice
weekend
zaharului
secretariatul
traficanti
haosul
mihail
despart
contingent
muncim
studiat
pietre
meritat
prostitutie
semestrului
ierusalimul
posesia
dnevnik
invalid
veselin
uzbekistan
neurode
primordi
improviz
nesemnific
ortodocsi
obradovic
incapatan
alexandroupolis
eurobaromet
a1
citate
cora
eri
zasta
##zandu
##sug
##serv
##die
##cei
##iesti
##utinovic
lacas
stup
acurate
ars
pose
##scul
##oslav
deplor
kosanovic
continui
enver
fetelor
incolo
celule
organizatori
semnele
salveze
devers
directorilor
coreene
marty
limitelor
competentei
conformeaza
gradu
capitolului
declaram
orientarii
filt
intervenim
ordinele
modeste
executate
vinului
diferenti
neaut
bucurosi
strig
boge
dublat
instabila
simplificat
petrolier
examen
investigare
diviziunii
precizeze
studiaza
##comun
stocuri
pedepsele
interpreta
erorilor
strainii
informatica
metohija
televizor
radmanovic
##cron
avantajoasa
petrescu
pragmatic
reformarii
aeroporturilor
reconstructiei
divulg
prelungite
impulsiona
focul
persevere
achizitioneze
neregulile
apropiem
vaccinare
imperiului
incadrarea
impresionat
hotelurile
monumentelor
absurda
datoram
nenumar
memorandumul
portugheze
rasun
confidentialitate
neoliberal
reinnoit
virusului
intemeiat
incetinit
dieta
zvonuri
preferentiale
amnist
microcredit
bizant
ateliere
ostatici
laburist
##function
enclave
xix
ruijten
suprematiei
bytyci
ditore
anadolu
zastava
ritu
shi
tica
zaman
##ourile
##su
##fti
##ward
##roka
repri
lacom
ced
segreg
alfabet
nech
##sau
##savljevic
nokia
##antelor
luko
apce
atente
putand
vecern
subdez
aboli
feith
altui
informate
informationale
strategici
liberalii
legislatiilor
expon
directori
insote
publicatii
valuri
sfint
indeparte
##ske
razbun
passy
juriului
petkovic
acuzata
cincime
castigate
castigata
provincii
campionat
penalitati
presante
contravin
explicatiile
moderniza
confruntati
confruntandu
tranzitul
manageri
ducem
cumpl
masacre
invatarii
mobilizeze
##ouros
djuro
armonizat
slovene
exploatatiile
studente
echipate
fotogra
avantajoase
miscarilor
show
washingtonul
1986
diminuat
ignorata
sindicatul
dureroasa
##ciunea
deficientelor
aniversari
compensatie
admitem
aspiratiilor
floren
perceput
jurisdictie
ingrozitor
neclar
unificat
simularile
restituirea
segmente
inferioare
nediscriminarii
prerogative
avortul
reparatii
tunisiei
emigranti
batrani
incompatibile
portofoliu
antonela
debutul
elvetian
termocentrale
socioeconomice
emas
interoperabilitatea
ruptura
conchis
demiterea
ahmadinejad
lulling
subdezvol
bea
kel
mire
oed
ovine
venind
wh
zlatko
##ujevac
##ntului
ino
inman
proeski
macel
eura
##imension
neat
lukovic
##clama
##etea
demersul
asimil
abro
migrarea
##feld
##ificat
sectiile
directiile
ramura
verb
aflandu
trista
inaltii
supravegheze
proprietar
ajutorare
##obo
executat
boy
instaurarea
temeinic
vorbitorilor
judecatoreasca
calatorit
cotitura
colecta
oprita
steph
ratingurilor
bebel
calculator
autorizatie
spanioli
ajustarea
aliatilor
munte
titei
pornit
impartita
viabilitatii
suspecte
suferintei
surprinzatoare
distant
inspectiile
fluxului
incidentului
##now
inegalitati
blocada
revolt
agresiva
pilonul
prudenti
imperiul
aratand
instructia
potentialelor
compatibilitatea
faptelor
magazinele
nevinovate
contaminate
pronuntata
respingand
deliberata
rije
intimidarea
comemorare
simulari
catastrofele
nediscriminarea
cubanez
mihai
repartizarea
adancime
dezarmare
cianura
rtk
compasiune
fedr
inasprirea
intocmirea
imprejura
indraznete
renaste
arbitrar
neexpl
canadiene
ultranationalist
excav
elicoptere
lacrim
concurat
xiaobo
zeelanda
kragujevac
ble
gates
kre
ner
rts
##ibile
##matiz
decre
saxe
caii
ree
##enseze
##sius
##omon
comore
neleg
doisprezece
aport
apicult
regizat
2030
avari
replica
reporteri
minor
miniere
timpurii
abon
scho
confi
aplicatii
elekt
proiectarea
transpusa
activat
corective
antis
converg
copro
##canica
civica
simitis
reunificarii
regulamentare
metraj
jaf
ordinare
premerg
exportului
vestile
identificata
manager
liniei
pensia
profesii
borislav
freed
citeasca
avansarea
ajustari
proportionala
shala
##ografia
strictete
1987
supravietuire
arunce
insotire
express
inspector
gradina
olandeza
blocaj
delicte
diminuare
curajosi
corporatia
cumparaturi
ivanic
chimica
craciunul
deteriorare
imbatraneste
dobandite
infectate
armeni
sportivii
discredit
returnarea
contestat
restitui
aprinsa
refacere
necunoscut
agraveaza
adancirea
baricadele
inject
orchestra
ucrainene
deblocarea
neasteptate
kenya
lamuri
carierei
wallis
abuziv
ccg
episcop
divergentele
rasismului
feag
indeparteze
freedom
ful
gji
hra
mos
miilor
oro
##uce
##pic
##ynt
##inarea
cosm
##stelor
lacul
lazare
cecen
cong
eurog
neza
neta
foci
spion
##paim
apoge
##oarei
obsc
abund
incoace
douasprezece
green
descon
tratative
transpus
##uitor
##ides
inspaim
actualitate
facandu
mentionarea
cultiva
climatic
democratiile
acuzand
alimentarii
plaf
metrop
supraveghet
jah
explicand
aliante
fermelor
leakey
armonizeze
mann
##fete
precedat
gravide
practicii
tendintelor
producere
tranzactie
tabu
audierile
##ovei
dezastruos
rude
##ronom
demonstrantii
simbolizeaza
corpului
diamand
busutt
desemnate
sondajului
##kovska
exemplele
dezamagitor
aparitie
##glom
agresive
fiabila
starneste
inevitabile
sacrifici
particularitati
urari
indraznesc
nominalizat
svil
retinere
conectarea
saturat
deplasa
catolica
degradarea
ministerial
partajarea
conceperea
tensionata
detasarea
aviatica
neschimbata
stringente
jucariilor
garrido
milenkovic
locotenentul
cambodgia
jakup
toxicomanie
nicolae
reorient
maltrat
rijeka
diamandouros
busuttil
hrist
jarin
koc
satului
viteze
##zim
##hha
##tam
##bug
##mid
desa
decon
##ink
reman
##stantin
impotri
fib
politistilor
europen
asidu
dorinte
milanovic
cetatenesti
informarii
albine
popovski
cercul
imbrati
legislatiile
coreeana
antidem
conven
momentan
anulata
operative
isma
amendata
militanti
militantii
optime
curtile
analizati
##ilad
fraza
plav
intervine
reach
box
israeliana
vechime
afirmarea
canare
traditiilor
amanam
romanilor
progreseaza
automate
donarea
civilii
descoperita
transferurilor
electricitatea
atribuita
audierii
negociator
batalia
interpretata
rotunda
moscovei
incapabila
plasate
originile
rrome
vizibilitate
confirmare
cluburi
proactiv
apeleze
amesteca
considerentul
seamana
recordul
hezbol
agrava
accelerarii
nevinovat
evolua
balantei
monopolurilor
obstructioneaza
nerezolvata
1967
codificarea
interconectarea
admisibil
tangibil
mcgu
interaction
epidemie
nejustificat
halte
recolta
concluzioneaza
alpin
tactici
parametrii
greceasca
retroced
ancor
diseminarea
destram
generice
qatar
abhazia
improbabil
artificiale
alumini
baronesei
readmitere
neurodegenerative
hezbollah
ateri
band
hil
kum
og
omn
pist
psac
soi
wort
yves
zice
zenica
##uv
##uel
##udi
##pule
##lului
##kins
invoca
colin
##energ
maco
##ilat
stin
pesim
alapt
##veri
auda
##urgh
##bilis
uefa
multitudine
dabilis
plam
guverna
bab
eloc
infilt
croaz
##oleze
ceause
indulg
indonez
insol
potriveste
actualizat
actualizata
capata
fundatiile
transportat
baran
armament
deputata
conducand
lipsiti
hahn
specializata
beneficiem
geb
succesorul
##jek
prevenit
castigatoare
inovatiilor
301
recomandate
datand
scad
reap
intensive
##oliu
folosire
dublul
sportiva
distribuita
romanul
uneste
precip
accelerare
jurnalistului
islamiste
intarzia
contactelor
rocen
oprire
infractorii
cotidiana
componentele
forumuri
optimiste
abtineri
bosniacilor
legitimitatii
judecate
vanduta
olandeze
impiedicarea
blocajul
indepartam
indeparteaza
livrare
consiliilor
intampinarea
cumparate
nerealiste
turkish
imperios
clasament
preferinta
adapo
islandez
marocul
alcatuita
autovehiculele
repatriere
brian
deplaseze
decurge
editorialist
bisericilor
veterinar
balet
kargazst
tensionate
previzibil
inversunare
odihr
lyon
fotbalul
##orgos
bashir
castelul
survenit
dizolvarea
parental
jucariile
juncker
www
jarinje
macovei
aie
avaz
aria
kot
nms
tft
ulu
zh
##uare
##nc
##ny
##nest
##ktor
##qui
##anseze
##alon
unim
proclama
made
intact
cedat
alina
comenteze
parca
rade
##ionarii
tose
compre
solomon
##voce
subt
##alizand
dorita
autop
turul
bast
continea
energic
stabilizarii
viziunii
vizitelor
includere
inflexi
interp
intersect
generalizat
farage
##onavig
primari
##atoarelor
relansa
suporteri
feluri
conviet
agricoli
sfant
fundatie
operatii
acuzandu
amenaj
porturilor
hotare
scaun
188
stimulam
138
executa
vinul
identificarii
gandurile
senatul
permanenti
majorarii
instabile
mobilizam
radionavig
impartaseasca
refuzand
stocul
predomina
pedepseasca
calculat
migratoare
echipelor
coloni
reformata
shkul
simbolul
surprinsa
aviare
insuf
meciurile
cetateanului
inegale
nesovski
subminarea
marfurile
impunitatii
neglijat
selectarea
palestinienilor
siturilor
excluziunea
severin
difuzat
prompta
silvi
disproportionate
returnare
trasabilitate
proclamarea
bonn
evitarii
avioanelor
subterana
patriarhul
temperaturile
paneuropean
stapan
gyori
armonioasa
renegocie
stambolic
muammar
antimic
lukoil
coproduct
ceausescu
tftp
shkullaku
bg
bum
bart
fet
gbag
hans
jig
kru
oscar
wik
xynt
##uere
##yn
##yle
##wan
##inness
cape
##ilarea
stiau
euf
trezit
##eria
##erini
anve
doreasca
lucrare
moderate
##enik
chip
asediul
teza
deminare
asiste
cadou
continand
opresc
astronom
celsius
gruparilor
traducerea
disperare
tratare
ceruta
cerandu
moara
regulata
raspunzand
publicitare
gracanica
provocatoare
administrate
##tering
capitalele
castigatori
nationalismul
demonstrata
metro
metru
tipurilor
profesionistilor
claritatea
confruntari
stranga
fermi
irakiana
merite
temem
230
sloveni
descoperiri
interpreti
examinata
precondit
besa
integritate
porumb
scolari
misca
sindicale
detinatorii
muzicii
incapabile
dezvaluirea
scrupule
vizibilitatea
esecurile
delict
persecutie
riscante
sarbatorim
liceu
vaccinarea
trofe
street
prudente
antrenor
falsificarea
psihologic
sinergie
rezervat
vacante
incompet
hidroelect
manipulare
rezidentii
explorare
favorit
mintala
previziuni
deliber
distribuitori
rival
intensiv
fructelor
fuziune
catastrofelor
precautiei
esuate
inferior
maghiarilor
studiate
fitch
grabim
abtinem
dumpingul
microcredite
minerit
parametri
cinstiti
atingand
neplacut
inechita
sacrificii
holocaust
sibenik
imputern
preponderent
volei
gebhardt
gbagbo
xynthia
aod
eti
eide
fei
gilad
iva
mim
omis
omite
pui
pli
vuc
##cd
##cki
##wi
##anz
##iep
remi
##ender
laos
mafi
dinari
excurs
##orth
imprim
impaduri
acut
fouere
spir
leh
##icek
asoc
##chez
##ovica
moderata
##oaica
reper
faptasii
teoria
evrei
opreste
opoza
##dictori
consideratii
prezentari
justa
calde
incluziva
##lini
sustra
fondator
generand
informal
detentia
reprezentativ
reprezentative
relate
raspunzatori
grabi
transmi
rusii
eradica
condusi
triste
ideologica
amendat
clasic
exercitarii
folosindu
matematica
candidatului
istoricul
ingrijorate
nigeri
crescatorii
ajutorarea
##rogen
influx
combine
gandirea
referiri
reactoarele
deplang
instituita
elementara
sporturilor
premiat
contextului
pastrand
legaturii
cautand
stem
coerentei
sinceritatea
aliate
interzicerii
genero
cablu
bisericile
camerele
capturile
complicitate
avocatului
prelungeasca
##anovo
procentuale
incapacitate
torturarea
combustibilul
diminueze
aparator
subsidiaritatea
macroeconomic
terminarea
impunitate
nascuti
suflet
azerbaidjanul
onorabilul
preocupe
homosexuale
dezacordul
acumulat
manifeste
stradui
rabdarea
fasci
profesionalism
stagnare
rebelii
syd
convingator
vassili
incoere
neincrederea
sinuciga
artificiala
conlucra
carlos
dublarea
buzunarele
emblematice
norvegian
cornul
bowis
interimare
minerale
krajina
subcomis
tropicale
expirarea
desconsi
svilanovic
wortmann
hari
hei
hip
latura
mid
qimon
sond
tvet
uit
uitate
vatic
##ac
##toare
##strat
inles
##inate
##arn
##rarii
unificare
mamei
cetin
cecilia
##sex
##arakis
##elet
spas
##usz
modalitatilor
chris
##abilitatea
lunare
semnatura
infuri
activarea
moza
primiti
esm
sincron
prezum
construiesc
scopurilor
generalii
medicilor
nagor
consemn
112
datei
loveste
formatia
pericolului
dimas
contradictori
jack
apelat
judecand
animal
respingerii
exportatorii
intermediar
vestice
cauzei
creditorilor
ambasade
totalitar
criticate
seriozitatea
unesc
intalnirilor
preluate
canadian
acoperita
bek
trupei
mitre
simtita
avantajos
audierilor
alineatului
##shore
avocatilor
scutiri
aruncam
desemnati
sondajelor
reporterii
inspectorii
##chilib
ritmului
robusta
subsidi
compensarea
##ield
strasburg
branislav
agrement
subsidiaritate
theodor
tromb
precauti
disciplinei
desfiintata
incertitudini
hasan
inrautateste
demonstratiilor
explozii
trenurile
australi
amanuntita
acoperis
##himerini
anagnost
rezidentiale
radioactiva
recastig
stavre
unificata
nationalistii
rationamentul
telefoanelor
popularitatea
reclamant
umpl
supravegheate
necunoscute
thailande
ponderea
evolueze
lamasso
onesta
atractivitatea
inspiratie
microintreprinderi
groapa
embarg
nedeclarat
bagdad
socant
budva
terap
andreas
exhausti
milioanele
vicios
ticau
anvelope
lamassoure
220
estiv
erei
fern
gla
iern
land
nul
ps
punte
voda
##zani
##umele
##nski
##sfeld
##col
##czy
##vica
##yev
##fran
##ril
inim
induce
incidentelor
siriei
sadi
cast
##enberg
##oljub
mast
marie
##sete
pedo
eurob
##izator
##urand
dogan
##chner
adn
tore
totalizat
vezi
interni
masline
abat
votate
##bach
candideze
situandu
trad
transpuna
activist
primind
binecu
tacut
insan
insurg
continuate
ofert
patten
fundamentul
motivatia
106
##orei
lucrator
alimentate
portoc
exprimand
taxi
contrazic
stimularii
experimente
175
modesta
indicatiile
conflictuale
introducand
stanj
amanari
preciza
respectivului
karas
adunate
steel
televizat
respectivelor
musc
avizului
aferenta
georgian
circumstantelor
automobilele
arhiep
caricat
indepartata
mergeti
revoltelor
neconstitut
impresie
atmosferice
declansarea
desfiintat
pagubelor
neutra
agravat
intensitatea
contaminarea
nedreptate
pavkovic
lacuna
biletele
consilieri
sustenabilitatii
voluntariat
voluntariatului
reputatie
aripa
relevanti
metodologie
amag
popularitate
kathimerini
suspiciuni
furia
etichetele
tactica
neutralitatea
expansiune
neplatite
stringenta
dnevni
containere
rumsfeld
partinitoare
aroganta
expedit
intelepciune
joachim
chirurg
##outube
suprimarea
stigmatiz
thomas
imbolna
inmult
