[PAD]
[UNK]
[CLS]
[SEP]
[MASK]
!
"
#
$
%
&
'
(
)
*
+
,
-
.
/
0
1
2
3
4
5
6
7
8
9
:
;
<
=
>
?
@
[
\
]
_
`
a
b
c
d
e
f
g
h
i
j
k
l
m
n
o
p
q
r
s
t
u
v
w
x
y
z
{
}
¡
£
¦
©
°
±
²
³
º
½
¾
ß
æ
ø
đ
ı
ł
œ
ʻ
ˈ
α
β
γ
δ
ε
η
ι
κ
λ
μ
ν
ο
π
ρ
ς
σ
τ
υ
φ
χ
ω
а
б
в
г
д
е
ж
з
и
к
л
м
н
о
п
р
с
т
у
х
ч
ш
ъ
ы
ь
я
‑
–
—
‘
’
“
”
•
…
€
≤
##i
##l
##c
##e
##s
##t
##r
##n
##p
##d
##a
##b
##y
##u
##o
##m
##h
##g
##f
##4
##k
##v
##z
##0
##8
##1
##3
##5
##9
##7
##6
##2
##w
##j
##q
##x
##ˈ
##º
##т
##р
##а
##н
##³
##ı
##°
##½
##ο
##ι
##ν
##о
##ъ
##л
##г
##и
##я
##ł
##е
##ч
##с
##в
##æ
##đ
##ß
##м
##ø
##²
##κ
##α
##œ
##ε
##λ
##ς
##©
##у
##ж
##¦
##υ
##ρ
##ω
##τ
##к
##д
##ь
##γ
##μ
##δ
##η
##φ
##π
##ы
##χ
##п
##ш
##х
##σ
th
the
##on
##er
##ti
##en
##es
##in
##or
##an
in
##ed
##at
##is
of
an
to
##al
##ar
##ro
##re
and
##tion
##ou
##it
##ing
##ent
##ic
##ec
##as
##om
##ve
##il
is
re
be
##ation
for
##le
that
on
##ment
##ur
##st
##ly
eu
wh
##id
##th
##ion
pro
we
it
##ol
st
##pe
##ac
al
com
con
##ot
##se
as
##ter
##ad
##ri
##ul
this
##ce
euro
##ort
##ig
##ith
##ld
de
##ver
with
##ut
are
##ay
europe
##ow
##ess
##ia
##ir
##ill
##os
##mp
##tin
##ate
ha
un
##oun
##et
su
ne
me
par
##ity
##op
have
##ould
##un
##pp
european
##ts
##iti
en
##ers
comm
will
not
##ra
ac
##ting
ex
by
##mb
##us
##im
pr
##ble
##oc
##ain
coun
##ak
res
ag
at
##ich
##igh
##ch
##ge
sh
which
has
##ial
imp
##ust
##ore
##ff
##ect
sa
##sion
le
##ant
he
##tic
##our
ch
##uc
##ov
pol
##rom
##and
##ther
or
##ure
##me
se
all
##mber
##so
from
go
rep
wor
##end
##tive
##est
##ian
count
##ission
##ud
also
reg
ser
there
##ree
ad
##ie
##od
##ard
pres
##ist
tr
##ere
##ations
inter
li
commission
##ll
##ue
##um
##tions
was
would
20
##der
##ary
##ates
##te
co
##ies
can
di
##ome
but
##ke
##ear
##ast
##ab
ec
inc
##ish
ab
str
fin
do
##vel
its
pl
##ans
##all
##ry
min
our
##pport
##fic
presid
their
##ence
##ip
##ational
##lia
##out
should
exp
said
##ments
been
##qu
##onom
us
more
must
##ven
parlia
am
##ous
rec
need
##ade
dis
pe
##ms
##ake
parliament
acc
new
econom
##ance
##gh
##ign
sp
they
comp
##ally
member
mon
cons
states
##ong
union
year
##si
##enc
##lo
who
op
##ated
mar
so
##anc
tim
##und
##for
righ
##rou
polic
you
##lic
##ues
how
report
##am
##able
##ries
##day
import
int
work
ind
##gr
##ities
president
##ap
dec
##ves
mo
##ati
bec
serb
part
##ted
mr
##ition
one
##ag
sec
app
countries
cr
##gy
these
##ult
##duc
no
bel
man
##ution
##ens
##ks
##reat
bet
##vern
agree
##act
peop
##ub
prop
##au
ver
govern
pos
cont
eff
##rec
people
dem
other
intern
##age
##oin
##ose
out
pri
resp
support
up
ar
economic
about
tur
##velop
very
than
develop
like
##fore
conc
##ep
200
some
##ace
##itic
##el
country
##tit
politic
if
important
##ause
##ility
##ise
under
what
##ord
##og
##ack
##em
##cil
soc
only
##av
##ister
again
##ase
per
fir
la
af
##vid
vot
##ever
iss
council
time
##we
##ach
cl
fund
ter
##form
trans
state
inv
say
##ision
partic
ob
kos
##lud
rel
##ures
over
however
because
mark
##ten
##ency
##ovo
##ved
proc
pre
minister
financ
##ating
el
##ine
kosovo
leg
##ween
between
##ual
##ious
policy
##ular
rights
##ative
##eration
##ors
government
were
##ive
##ving
region
propos
bo
my
ins
prot
##lear
now
political
such
international
ass
##ieve
##ublic
first
tw
##one
##min
market
sy
them
##ail
##get
##ru
##fer
add
##res
into
when
fe
##tain
cro
##mes
##enti
see
bas
##ern
direc
commit
two
##ards
includ
agreement
##ection
##ink
##par
sit
high
citi
citiz
##ech
##ric
social
##eral
##ised
against
sol
##ond
his
##uring
financial
##ile
cri
democ
##aj
any
##ight
##uman
cris
those
##sible
therefore
##vic
serbia
citizens
##roup
human
##ural
##aced
disc
diff
##ific
particular
##mbers
group
take
##rib
make
##urr
##are
proble
##rough
produc
##oll
##ost
ener
crisis
##ected
gen
well
many
ro
au
##hip
development
appro
##ok
##eng
##ty
energy
after
years
sub
incre
cour
##ective
sign
public
##xt
national
law
te
cent
syst
##ress
being
clear
meas
way
##very
offic
made
world
##ild
provid
##oint
members
call
##00
deb
commun
##go
im
med
most
##lement
##gan
chan
es
##ide
##ania
lead
br
##now
##sel
requ
##ough
proposal
secur
spec
end
##wn
ens
last
##ass
concern
tak
resol
curr
contin
##uation
##ob
ban
##ism
rom
##uss
fact
security
##li
##ects
##abl
believe
##iew
tra
form
level
##isation
bud
si
respon
##ently
sc
##gar
rem
fut
##ents
future
cre
think
auth
##amp
sti
may
##orities
could
croati
had
through
order
process
strate
budget
##utions
##ful
##air
##ited
alb
##ram
##eign
hel
emp
good
##eg
sou
maced
macedon
repres
##key
##ory
instit
##ath
measures
turkey
great
gro
nat
where
##ince
ra
right
##ite
know
##pr
conf
help
##ey
##loy
red
##ties
##bility
def
##uch
adop
situation
even
regul
every
##tern
##ority
organ
long
##ady
issue
during
201
##illion
des
bi
access
want
qu
accord
tal
##ical
ful
##ene
gre
war
system
##ces
ques
##isl
##man
treat
use
##reed
##ings
sect
mat
gi
implement
both
19
impro
inst
##cep
vis
same
inform
compe
bal
env
today
gu
stand
bul
prog
south
plan
decision
car
program
##ters
set
bus
invest
her
foreign
##ound
far
##ran
ext
##mental
regard
##goti
##wor
##king
main
possible
##ruc
maj
negoti
##ject
##thing
aff
##ays
area
##ope
##ute
##ft
consid
still
##ential
##orts
##cc
##iness
##inc
inte
just
est
##ety
servic
ensure
bulgar
mil
times
vote
represent
since
coop
##old
protection
ach
own
##tiv
while
does
cap
##arge
cond
##ged
nu
party
##rac
prom
trade
ev
get
month
lo
##own
##ood
##ges
cor
##lob
within
legisl
pers
##ovic
##les
ann
rul
cann
##ind
bu
prime
fav
##gress
spe
##itions
foll
follow
fr
much
business
##anian
pow
debate
initi
compan
##ecess
committe
resolution
##ertain
##ici
cannot
open
dra
##ability
##iv
##vers
real
##ire
##ablish
here
establish
according
fur
sch
##ame
##ina
including
fra
##ready
already
##mit
##alth
sector
common
place
differ
sm
put
glob
##ied
voted
bl
grow
further
bih
##omen
dep
##iron
three
environ
number
##ice
##ning
id
cooperation
favour
act
mak
allow
##work
nor
action
strategy
##ratic
without
##ax
second
case
treaty
committee
##men
question
necess
progress
vi
star
hope
##vision
consider
general
global
official
information
increas
##ason
inf
issues
certain
aw
commissioner
wel
why
macedonia
remain
aim
loc
##als
able
saf
next
croatia
##gin
bor
authorities
health
serbian
fac
integr
supp
##ists
before
bos
##ages
institutions
view
wee
partn
att
beh
change
role
##ultural
your
invol
terr
##land
##ss
##ug
##ately
point
economy
##wards
women
##urs
##grade
southe
democratic
job
employ
ref
##sp
opport
opportun
##come
##ece
step
##echn
obj
##ount
problem
strong
amend
av
##times
problems
areas
indust
based
##ital
bosn
legal
community
prev
then
contrib
##ources
reason
competi
relations
belgrade
southeast
##tice
equ
free
ear
techn
current
needs
told
val
##eting
necessary
meeting
contro
##its
##ik
turk
men
freed
viol
princ
deal
ur
examp
princip
##ration
given
comple
freedom
oper
000
##ests
too
better
##ength
##over
continue
exper
##ising
##oura
##ections
direct
##ences
opp
towards
greece
united
russ
child
effective
##iter
respect
##leg
##bon
taken
operation
particularly
move
##ang
##ines
##led
power
back
tax
bar
monten
euros
##sk
##ird
present
directive
among
course
sl
em
hand
##sibility
agric
turkish
frame
proced
##tis
##alf
rest
programme
##ren
##lus
transp
##med
##epend
cost
rev
show
negotiations
vo
strength
day
##itive
bulgaria
court
means
romania
improve
ask
serious
former
##cept
diffic
independ
rules
example
third
framework
jus
pay
##atives
nato
growth
setimes
lib
whe
##ises
##stain
million
partners
find
food
10
##fied
bene
come
##other
specific
##fe
let
provide
regulation
efforts
small
local
thank
give
increase
express
gr
reach
##aly
mod
consum
##ulture
another
##itor
simp
person
presidency
police
regional
enter
rece
##ret
whether
##ward
sever
rapport
rapporte
play
albania
conditions
balk
cy
terms
lis
pop
##gether
##racy
head
##til
educ
##ually
funds
talks
##pri
press
##ev
services
bank
build
peace
result
##ned
##ily
term
succ
different
activ
sum
clim
lisbon
signific
down
##ession
##ph
civ
ph
const
civil
implementation
##fy
199
together
##ante
##uce
lab
climate
addition
wri
guar
major
look
happ
resear
research
##ict
##ouse
constit
writing
fish
discuss
##lemen
##tim
approach
success
##ral
funda
did
ris
strengthen
prof
reduc
position
elections
chall
doc
##rup
guarante
oppos
working
resul
adopted
##ogn
resources
##ather
making
used
she
prac
week
fail
legislation
become
##ians
aid
##egro
control
##ially
montenegro
eas
priv
##self
particip
##atic
qual
##ases
adv
says
recogn
air
sur
##round
off
pris
instru
companies
sustain
parties
##pec
key
albanian
##ater
fundamental
12
refer
assist
reform
standards
project
##ced
transport
pass
achieve
opin
soci
gree
opinion
following
products
democracy
bring
tar
##ick
##arity
intro
require
large
found
interest
policies
milit
mean
speak
11
money
significant
workers
ess
##utes
##ead
har
going
investment
##pl
recent
##uct
espec
benef
especially
force
char
sing
integration
2009
effici
children
foc
few
clos
##stand
bosnia
forward
tri
leaders
##used
mrs
ru
welcome
prepar
account
house
##tives
ge
##ants
##ib
sk
##red
address
##ner
border
##line
uni
stability
enc
fam
ger
dat
##gest
##olog
months
opportunity
jud
called
full
##ock
done
importance
bro
less
mad
##20
##iation
four
##ulation
suff
join
rapporteur
education
basis
difficult
ca
greater
joint
##adic
special
fl
proper
billion
sw
##ension
russia
matter
docu
##vention
greek
ide
military
coh
##tention
##ium
##ica
##omm
comb
accession
mention
##ovina
##nes
struct
clo
##sive
ap
##lusion
##ances
var
##omes
eur
manage
safety
##ness
ret
transpar
positive
media
several
justice
amb
##iod
##ana
col
##ging
society
met
##ended
inn
currently
each
admin
industry
demand
##ats
##bour
##je
##erc
best
##ending
indi
period
yet
##jects
responsibility
data
requir
coll
15
##forms
##uge
impact
indic
hun
##ordin
single
stud
solid
once
jobs
taking
officials
agreements
jun
solution
elect
life
short
##sequ
##ds
stat
administ
conflic
whole
german
least
jan
top
environment
terror
fight
poin
##onst
internal
cred
initiative
tour
behalf
proposals
due
critic
2010
close
employment
essential
dece
monday
madam
unf
er
##uly
pot
##ave
##selves
achie
increasing
##wh
announ
crimes
exc
##ko
##ways
reforms
low
##ski
##ators
##ton
interests
##ining
croatian
wr
rule
start
saying
##ased
##ogue
##ct
december
rele
youn
results
march
alth
majority
finally
##zeg
stress
##ling
ple
held
encoura
him
##ience
herzeg
although
##ems
expected
##ussion
innov
##ote
around
understand
construc
herzegovina
clearly
offer
projects
wish
##ared
decl
meet
central
##erv
nuc
office
##airs
extre
lim
young
nuclear
care
regions
assistance
##ference
membership
proposed
non
partnership
groups
cases
expl
##com
june
fully
environmental
assess
something
hist
really
final
dial
individ
attention
##ined
threat
past
corrup
wed
##urd
risk
quality
solidarity
service
create
##echan
applic
though
lack
mechan
review
##emp
assoc
inde
introduc
never
##ield
##ruct
##utional
begin
ke
##nesday
wednesday
happen
abs
##ecting
republic
##lu
provision
##ends
labour
ori
po
visit
il
##ief
ah
violence
inves
##thers
focus
dialogue
until
discussion
sustainable
##ying
status
target
strateg
subject
gas
##ality
##lig
agricultural
individual
prec
vic
having
name
eth
##uary
event
appe
dist
2008
coordin
del
objec
affairs
##nic
monitor
sen
challeng
##tina
neigh
january
involved
asp
management
pack
##iting
defence
opposition
ent
production
##az
30
cultural
list
recei
objectives
rather
left
consequ
needed
complete
##ible
always
camp
##ris
##ilities
things
rad
ago
sup
##la
added
various
oct
##tle
neighbour
farm
itself
post
cohes
##unch
net
company
##ober
conte
october
crimin
summit
five
corruption
retur
##ceed
tot
crime
principle
consumers
procedure
agency
concerns
##ove
2020
minist
include
##lex
prevent
##ides
hold
##ons
deter
funding
independence
markets
minutes
macedonian
mul
##uk
##iance
desp
##part
guarantee
lad
uk
cohesion
gent
##ices
##tig
centre
enti
expect
##ued
emph
soon
fair
ce
conference
tues
tuesday
##ange
often
cand
##isting
infr
##ateral
won
oblig
nove
concerned
##veness
november
imm
traff
##atis
near
occ
##uty
activities
pur
news
competition
analy
capital
agreed
sar
extern
recomm
avail
candid
potential
extreme
keep
gentlemen
emphas
face
sim
statement
##ale
14
images
balkans
ladies
25
##ided
disp
##mon
pros
old
regarding
##mination
representative
##less
six
colle
run
organis
challenges
external
ir
contr
big
commitment
pristina
responsible
appropri
accept
parliamentary
romanian
##thern
developing
##tiveness
programmes
along
##raph
##enda
##unc
changes
others
cross
##versity
demonst
illeg
trad
organised
systems
indeed
population
##orting
road
getty
counter
##estern
##sels
investig
##olo
points
transparency
##oy
##most
fil
ministry
priority
apr
april
##ensive
promo
costs
maintain
##rest
##atory
bri
thurs
thursday
western
broad
announced
hear
secret
##ps
objective
##ably
provided
field
context
geor
ethnic
days
concerning
despite
traffic
increased
##overty
poverty
##mar
##aps
launch
representatives
sug
read
##anovic
practic
mission
prosec
##ator
##up
amendments
conflict
##ology
available
sel
##medi
previous
##ier
##lav
##io
line
##aged
enterpr
sep
package
eng
words
july
legislative
dou
##tims
victims
promote
##row
##ool
##istan
susp
comprom
response
culture
cruc
decisions
##ody
##istic
##igration
seen
##ither
home
det
kind
sure
plans
organisation
##ortun
bulgarian
unemp
unemploy
##bru
visa
origin
##ished
criter
election
##ender
trib
leader
febru
february
enough
##side
feel
unfortun
quick
func
took
cla
forces
bre
liberal
signed
acro
governments
agenda
remains
actually
##ried
##plom
diplom
private
fisher
mis
slov
##tember
##use
##ior
reports
##ash
cut
hon
##ze
request
strategic
hard
principles
emer
##ering
september
2007
creation
##acy
north
mom
living
pap
##encies
communic
regim
across
criminal
crucial
chief
##reb
brus
18
thus
27
ve
reduce
gener
port
simply
conclud
immedi
led
relig
conclusion
arrest
innovation
comes
avo
afric
colleag
protect
lat
fell
##itar
brussels
apply
artic
mid
##ka
benefit
tas
##astruct
infrastruct
mand
sun
aimed
ath
agriculture
entire
early
document
confid
extremely
anti
above
nations
##ibility
stop
win
pa
organisations
text
businesses
sent
##gue
requirements
received
subst
doing
discri
values
##sw
13
##duce
criteria
aust
ministers
##ilateral
voting
return
amendment
mentioned
illegal
governance
cover
17
green
efficiency
instruments
##evo
total
draw
answ
recommend
dam
director
cho
moment
mov
school
kar
questions
ten
prosp
training
aut
demonstr
mess
enterprises
##thod
draft
deleg
idea
##ourn
perform
procedures
##equ
##lling
##dp
##co
unfortunately
recently
##ger
turn
2011
lit
successful
poor
achieved
appropriate
sea
sal
additional
existing
tribun
independent
##yl
##ari
conn
##oted
reasons
urg
##prus
cyprus
using
mus
medium
reached
##vant
##ilit
impos
longer
##ean
ty
active
actions
farmers
function
required
exch
thing
##anced
natural
##aign
themselves
aud
pressure
campaign
priorities
quite
building
consequences
instead
coming
##sib
tribunal
compromise
16
share
established
##erous
mor
basic
saraj
balkan
##ump
financing
application
might
##itarian
instrument
fall
conduc
lang
prices
##mor
skop
mob
sarajevo
opportunities
avoid
rate
skopje
##ova
aware
##oslav
##zed
family
##ands
coal
everyone
infrastructure
##tian
asse
##ured
obs
##lier
finance
decided
germany
contain
lar
los
wa
journ
certainly
##imum
regulations
influ
langu
supported
##orders
serbs
vol
claim
##ont
sunday
true
adoption
capac
disas
internet
fes
technical
sci
oil
##iday
ensuring
link
absol
arm
highl
submit
don
death
##ilar
##irc
##rought
borders
tre
den
tourism
democr
##temp
festiv
yug
##ulate
attemp
##ovski
reported
##ked
yugoslav
##ja
steps
absolute
throughout
asked
regime
respond
emission
##uing
##ush
##cell
##acks
whose
rene
compl
subs
debt
deli
movement
iv
anim
everything
association
included
construction
alliance
circ
ash
article
restric
##ological
credit
cop
china
iran
exist
fellow
similar
##ination
little
almost
mechanism
##ler
unemployment
monitoring
pleased
cz
2006
contribution
effort
value
quickly
consumer
carried
##reh
confir
modern
##ara
repe
declar
calls
implemented
fri
inten
encourage
##ef
annual
isra
nothing
committed
israel
competitiveness
identi
affected
##aff
roma
carry
eastern
pen
related
earlier
chris
##di
czech
##lied
levels
georg
involve
brought
dim
21
outside
italy
##ubl
supply
later
matters
huge
effect
ukra
administration
##force
providing
refl
kill
laws
##lementing
neg
arg
renew
##hold
team
festival
east
makes
prosecut
receive
water
pension
##rants
domes
ahead
50
yes
price
2004
contribute
domestic
doub
bosnian
bilateral
##crib
fig
scienti
refuge
came
implementing
secondly
prov
amer
##val
asyl
asylum
ever
cust
chair
firstly
##por
##uses
lear
##ench
creating
budgetary
facilit
banks
profession
##haps
perhaps
adopt
##overy
france
rein
##vious
##eless
athens
weeks
improving
purp
pati
##ming
obvious
##unic
practice
round
secretary
strengthening
live
behind
terrorism
ruling
##ots
expressed
enl
ground
democrats
leave
speech
##abled
##ledge
hungar
history
discrimination
powers
fisheries
##lan
goal
tack
##ered
deep
ira
pi
equal
ready
approved
mind
##rect
model
higher
solutions
fulf
opening
firm
enable
##ograph
##theless
capacity
trafficking
##ert
aug
experts
explain
iraq
relation
presented
dest
##icient
##fication
depend
electric
defic
convention
assessment
vital
city
##rial
cypri
recovery
emissions
provisions
friday
method
goods
reduction
technology
##hn
##ics
##by
politicians
discussed
##abil
##ification
##sts
author
august
half
barro
dri
travel
journal
defin
stri
treatment
aspects
hop
##to
events
writ
##isc
##oms
message
waste
structural
detail
thous
harmon
##rative
##ska
100
balance
##while
##fact
confidence
age
##more
talking
##lim
##uted
imf
initiatives
##uel
authority
##gn
candidate
poll
ire
grant
leading
excell
ic
considered
relating
seek
humanitarian
dang
supporting
famil
##uters
sectors
light
includes
design
experience
24
##way
eval
benefits
stre
compet
zag
northern
promoting
ml
industrial
unc
known
##itional
created
documents
ord
russian
deputy
##if
##itious
os
pat
ireland
wants
tell
##gor
congr
facing
minority
effects
obtain
enlarge
investments
super
land
regards
exchange
congrat
amount
possibility
constitutional
rural
army
zagreb
sized
lives
dead
entry
lot
##cu
constitution
late
communication
compreh
provides
##ranean
shar
mediter
ambitious
##of
religious
session
mediterranean
##coming
penal
side
tadic
##na
##ident
furthermore
consist
describ
closed
hungarian
overall
ber
cha
##ions
liby
23
subsid
ukraine
weak
enh
prepared
administrative
nik
##erial
tir
##tan
##pped
date
##enge
talk
meanwhile
coalition
calling
shown
coordination
mandate
rej
separ
##ria
participation
##jan
conv
##fully
enlargement
bid
transfer
statements
dan
ste
away
evid
##hib
##ounts
challenge
precise
##fia
sloven
trying
##tity
direction
either
completely
opened
motion
flex
##bul
stage
altern
efficient
emb
shall
communities
hague
beginning
##lies
##kovic
##rete
prison
histor
publ
absolutely
rati
economies
colleagues
rs
##lam
##ening
gain
sources
moreover
chance
passeng
barroso
tun
adj
concrete
2005
effectively
bra
##itation
swed
via
minorities
dail
tro
flo
tool
agencies
relevant
##lantic
##ighting
paid
developed
40
self
spok
establishing
##idents
##endum
##lines
comprehensive
##ght
seems
burd
takes
territor
largest
fishing
try
caused
##tics
bloc
record
looking
sense
africa
bey
##egu
task
estim
experi
##ars
##ha
reuters
measure
safegu
daily
intell
failed
aims
28
##atch
referendum
##ensus
22
##ened
alloc
town
network
satis
##ne
##hood
##tish
tomor
##know
tomorrow
tirana
cod
vice
french
erd
alle
afp
dj
written
thanks
sitting
ul
##iz
applied
worth
discussions
rise
##engen
##anti
##oming
ank
hung
schengen
combating
##ury
delegation
##ron
##ames
beyond
##aries
##sibilities
staff
wanted
condem
ankara
reality
nation
goals
mut
fear
##ys
##erve
##igrants
##ets
consult
requires
wide
##zic
shows
film
answer
negative
##ourable
excellent
##mer
##orters
nikol
##ource
language
path
##ber
unac
giving
##pective
reducing
commerc
thousands
represents
loss
pra
surve
##isms
acqu
improved
##ring
boost
##hic
property
gdp
combat
belie
undert
obst
##vereign
adequ
sovereign
nature
british
##icial
##going
suggest
tele
fo
##ops
exec
##rd
dise
raised
2013
##ugg
personal
hour
##ban
trust
likely
recognise
scientific
purs
stabil
university
commercial
remin
commitments
families
ele
regret
diplomatic
##dle
##action
pal
istan
istanbul
trial
26
fed
ourselves
500
lost
rap
##rug
guid
equality
islam
targets
buch
attack
##read
growing
##arest
repl
##arus
##etary
hungary
##erity
##agen
influence
##ruction
circum
bucharest
reme
belarus
arri
##omin
plant
dr
quoted
command
smes
##unicip
minimum
exerc
##fying
portug
municip
##ulties
explo
started
namely
und
unaccept
immigration
standard
mi
##ologies
register
functioning
exam
analys
middle
establishment
mal
##omp
decide
relationship
##anish
allowed
monetary
mass
##ai
##ades
##hagen
closely
##ins
difficulties
host
cause
failure
unacceptable
##ees
competitive
deliver
##ortion
adap
defend
nevertheless
distrib
medic
##af
elected
temp
activity
material
closer
##sh
nearly
province
pred
obligations
mladic
sides
##enhagen
speed
delay
copenhagen
dev
declaration
got
approval
drug
attacks
break
sanc
mer
##verage
europeans
perman
else
ep
bear
acknow
enj
afgh
island
proceed
##osed
rating
tex
launched
heard
belg
##ogan
judicial
pact
strongly
study
bure
black
achieving
practices
##ighted
intended
seven
producers
involvement
patients
bod
cal
associ
remember
noted
continues
ways
boris
ran
sr
christian
immediately
##itim
##tical
refugees
audit
prob
latest
erdogan
afghan
persons
mold
directly
mechanisms
##ah
becoming
knowledge
multi
##lled
mobil
circumst
##olid
upon
##nel
stake
assemb
institutional
recognition
29
justi
award
alternative
eight
urged
ed
item
customs
safeguard
##itory
09
##ception
speaking
increasingly
kost
##ored
globalisation
integrated
chamber
spir
disaster
statis
##aging
##rid
##que
complex
##ously
elim
accordance
recommendations
##apan
science
partner
operations
japan
starting
vehic
accep
territory
##ude
followed
advant
regular
sugges
emerg
oly
acts
olymp
developments
highest
tabled
setting
fisc
submitted
adjust
alone
rapid
technologies
muslim
circumstances
fighting
rates
sex
sofia
bad
legitim
introduction
cypriot
wrong
suc
doubt
send
##oran
##inary
critical
##ought
ri
institution
sufficient
investigation
fiscal
##wise
parts
perspective
miss
damage
scale
correct
produce
board
planned
##uine
chec
votes
recognised
##orm
privatis
enjoy
gender
##app
##oke
##atur
genuine
04
product
##ified
succeed
spain
professional
obstac
rail
emphasise
manu
reduced
03
##itable
limited
congratulate
plac
05
raise
##escu
precisely
income
specifically
bodies
enforce
paper
hos
##uations
scope
karad
bur
##ature
risks
alleged
manufact
ital
##umption
safe
##reg
operate
introduced
began
##lusive
connection
arch
60
##ume
remov
seriously
transparent
##ills
##assad
ambassad
icty
convinc
planning
univers
##ox
##ights
##islav
ashton
mutual
duty
youth
secure
libya
export
##where
ones
territorial
assembly
equip
deficit
hit
positions
##he
##zer
prevention
lower
biggest
gra
##ape
average
southern
helping
permanent
disch
06
egy
remind
substanti
egyp
sens
forms
##elines
vul
politics
##care
resolve
albanians
evidence
forget
saving
pet
immediate
yugoslavia
charges
mur
highly
word
urgent
push
##arch
series
extent
block
ill
sanctions
consensus
note
##uck
dispute
##enced
##works
counterpart
osce
num
ultim
07
goes
31
appeal
##mission
##esting
stock
ak
issued
manner
managed
purpose
norm
fre
dro
ii
structures
##lad
improvement
stressed
adequate
introduce
terrorist
hous
exact
divid
pled
seeking
differences
demands
vulner
2012
burden
constructive
determin
linked
figures
hund
spending
insp
hundred
##endit
participate
students
exten
forum
gives
leadership
spanish
mas
protecting
limit
faced
liberalisation
migration
##egr
electricity
canad
##body
ongoing
supervision
##alities
properly
##ilt
forced
fraud
obviously
meps
undertak
italian
body
pipe
satur
spent
works
americ
numerous
atlantic
payments
simpli
bringing
pun
withd
consolid
##ta
elements
08
ice
montenegr
##enting
continued
journalists
slovenia
du
san
mainly
obser
discharge
weap
##acter
outcome
contract
prosecutor
poland
happened
willing
remar
##ulated
saturday
conclusions
mic
2003
adding
freedoms
##itime
kurd
stay
maritime
budgets
serve
views
negotiating
gold
summer
passengers
type
rehn
fa
##bo
draf
expression
animal
gul
##ift
##ese
preven
compared
spokes
whom
equipment
conflicts
supports
continuing
arrested
asking
troops
ship
overcome
guarantees
published
reven
insist
ign
test
##oman
performance
facilitate
sil
mobility
dealing
afghanistan
practical
renewable
##actions
arran
gaz
##estin
##road
hy
depart
presence
##ically
conclude
##pet
socialist
##inding
fulfil
granted
##onte
superv
choice
rejected
signal
volun
##rist
##nd
##port
##uff
promotion
strict
sched
guidelines
bat
heads
confirmed
##riers
balanced
spirit
##iss
investors
table
wit
complain
privatisation
expendit
slow
ton
intervention
charter
probably
ability
moldova
##leb
attempt
sports
cooper
constant
pan
conserv
##ression
consideration
##asting
unm
prior
prefer
##urance
interior
ey
mac
##lation
##oul
voters
adver
anything
passed
eg
voice
easy
buildings
friend
sche
operating
dimension
stronger
tackle
radio
fuel
mist
##auc
##mine
transition
welcom
understanding
welcomed
worked
banking
voic
exception
##ma
extra
celeb
exhib
comply
plants
conducted
situations
##ki
##ama
described
convinced
structure
emergency
changed
currency
##ocol
propose
meetings
##pping
character
##ery
healthcare
##vski
palestin
witness
binding
##ball
stable
shared
##ube
learn
accounts
rapporteurs
honour
killed
bureauc
stated
comments
protest
vulnerable
withdra
otherwise
putting
cere
source
excess
montenegrin
auditors
je
ties
##erely
anyone
responsibilities
addressed
##oned
interp
foot
##hing
contact
##oup
diver
hopes
##mak
advoc
micro
argu
ambassador
affect
murder
none
imports
exercise
##unica
max
vill
protocol
kostunica
inh
heart
unmik
inclusion
sometimes
seem
recon
flow
offered
violations
option
##bs
allowing
discussing
georgia
portugal
thought
regulatory
destro
analysis
##using
##ival
arrange
##0s
##oration
##ovanovic
getting
grad
hours
##hol
compens
reading
heav
century
ideas
stabilisation
unable
contrac
2002
individuals
35
##rate
##mbol
elimin
pak
##pay
employees
decent
condition
concluded
vict
networks
##urch
##rian
focused
tel
rich
produced
severe
engage
hor
sound
completed
pakistan
##oks
parag
factor
permit
##lika
taxpay
went
repub
abol
benefic
1995
west
##eness
concent
pipeline
##iu
##mary
candidates
estimated
moving
useful
neighbouring
cab
mos
urge
##resp
attrac
released
coup
##down
##ented
purch
srp
republika
##yn
presidential
exactly
luk
suffering
vac
christ
sad
considerable
swedish
armed
paragraph
cat
happy
irish
animals
range
forest
church
##met
##illing
vehicles
weapons
reb
resolved
informed
abroad
stim
operational
surpr
communist
sexual
protected
dig
##ired
judici
ultimately
lith
became
ng
##rain
tunis
srpska
deg
division
sett
facilities
appear
statistics
gave
warned
brief
enforcement
cle
inj
thinking
1999
significantly
expenditure
ara
dav
built
lithu
institute
offers
traditional
flood
initial
reiter
occas
definite
american
hol
##oses
optim
log
##orary
slovak
truly
medical
contrary
evaluation
washing
judiciary
zone
chairman
80
exports
element
##cing
##rant
##inks
sensitive
02
coast
##titude
blo
honourable
##ani
chap
canc
recep
compliance
substantial
iceland
apart
belong
advantage
neighbourhood
accepted
nine
##uting
##utive
##roc
content
##entially
##mas
concept
easier
##oral
enorm
intellig
canada
envoy
requirement
interested
egypt
##isive
macro
##fare
eulex
herit
collective
restrictions
friends
##uled
arti
lay
autonom
heritage
comment
ended
peaceful
obligation
##osevic
198
millions
revision
ali
placed
2001
factors
instance
involving
repeated
##yc
##view
##adow
reconst
release
colleague
proportion
reaching
washington
king
strugg
quar
prospects
complic
##aving
imposed
cate
compar
phase
austria
adapt
african
decades
popular
aspect
reference
kfor
dangerous
disasters
ou
##ulations
brit
greatest
joined
condemn
adjustment
milosevic
autom
buy
danube
kurdish
kore
unp
neither
owners
##ci
symbol
redund
hundreds
carbon
voj
opposed
karadzic
vir
loans
##xim
lif
ceremon
vision
##amed
improvements
sud
expand
adopting
places
dict
braz
akp
reconcil
solve
bran
criticism
allows
neighbours
##kk
consumption
thereby
class
rob
consistent
fat
##oph
##ancing
signing
extend
ren
schools
normal
fi
oh
telec
lu
admit
##lands
claims
##ones
payment
flexibility
peoples
##va
scheduled
##arily
##itro
track
front
disapp
##ointed
electron
brazil
cities
##de
please
##ovan
feed
welfare
##marily
300
der
champ
america
##atures
excessive
##ables
simple
tension
controvers
senior
analysts
highlight
studies
officers
remaining
immigrants
pkk
##enary
debates
sustainability
joining
decisive
played
reporters
incor
iden
separate
disease
withdraw
visited
unit
abuse
soldi
soldiers
##orn
causes
70
abstain
plenary
respected
##wide
primarily
taxes
commander
encouraging
determination
acceptable
zoran
hands
mag
barriers
nikola
methods
g20
relia
rightly
finding
coher
conduct
credibility
##inet
hosp
gather
##areness
awareness
determined
britain
radical
controls
happening
2000
loan
sovereignty
enormous
drawn
believes
tried
islamic
deploy
innovative
##ex
##ense
##ourage
cuts
toler
##aci
##ovi
participants
fourth
occurr
contains
apprec
resolutions
ivo
suggested
uns
accused
citizen
teach
threats
##mark
appoint
coordinated
##ivers
##mir
##osition
occup
frequ
pain
##aari
tru
accomp
lines
##rad
cur
acknowled
shadow
charge
surv
texti
tit
displ
urban
preventing
arab
lj
stor
earth
restruct
voiced
##iding
##ishing
distribution
foundation
wid
fire
##jic
geograph
##ectiveness
obstacles
prepare
postp
savings
reconstruction
##kovski
##akes
clari
ahtis
typ
yester
cabinet
exemp
ahtisaari
vat
spread
yesterday
01
bit
hal
##zone
impossible
##keep
procure
processes
executive
recommendation
associated
ceremony
profess
strategies
##uds
parliaments
dism
courts
annivers
worst
##ae
react
transactions
personally
harm
pointed
expectations
lose
pill
##lined
##isha
thirdly
designed
watch
reti
entity
resign
match
corpor
intention
destroy
india
attended
mobile
haiti
anniversary
##fin
liber
nether
interven
##vica
equally
base
forth
che
games
primary
afford
generally
survey
exploitation
insurance
ho
##repr
entrepr
volunt
netherlands
effectiveness
referred
pensions
worse
##adem
federation
entreprene
ma
##xic
taxpayers
facility
##anov
strengthened
mot
##rated
##inese
indicte
reflect
chinese
contributions
prosecutors
##time
##rating
trading
maximum
##iate
##ane
##tedly
##erves
##avi
exclusive
firmly
explained
procurement
collab
jo
respective
broadc
##ls
waiting
berisha
definitely
file
transform
directives
##odi
space
socialists
promised
dign
represented
flag
repeat
1st
##atko
tests
##50
##omb
numbers
eib
wind
##tc
replace
##ij
##astro
uncertain
department
truth
declared
capable
skills
addressing
existence
approxim
george
victory
clean
industries
labe
speaker
swift
vers
##arm
explan
omb
retain
convic
changing
unfair
##ader
site
extended
guaranteed
van
##lying
defined
diversity
basescu
faces
##renica
players
civilian
figure
subsidi
bill
interview
spoke
art
##anim
##isory
##acts
sole
duties
##ias
applies
swit
21st
medicines
egf
electronic
hot
##dom
someone
considering
demonstrate
accompan
theat
intend
criticised
demonstrated
evalu
ngos
##aw
##oo
frag
degree
disag
crises
operators
multil
consultation
rou
rising
letter
##ocks
##aties
book
preparing
treaties
reportedly
ombuds
closure
prosperity
purposes
cub
##sibly
##holders
impose
worry
##encing
laid
lies
turned
##els
olympic
##ports
##grad
allocated
mu
suffer
muse
merely
quot
urgently
##ites
unanim
spl
targeted
covered
ves
##ker
actual
jovanovic
stands
introducing
dram
##ija
brid
topic
sreb
##illed
##ruit
maintaining
television
materials
legally
advance
announce
penalty
fer
##ott
eurozone
judges
##unity
tunisia
museum
parents
##che
identity
mir
##be
keeping
identified
tv
academ
co2
divided
airlines
carefully
historic
temporary
fle
##urally
destin
revol
ps
##ony
competence
holding
harmonisation
online
prove
myself
collection
srebrenica
##amb
continent
breach
domin
pod
profit
digital
##han
worldwide
realise
plat
sold
helped
saw
formal
showed
music
courage
search
enhance
emphasis
double
##let
recip
##ept
##atically
requested
choose
vuk
trave
biodi
contributed
housing
friendly
fal
##km
stream
ombudsman
ut
##pol
newsp
##abling
cars
sanader
newspap
bir
fif
behavi
aviation
punish
contracts
err
biodiversity
behaviour
religion
##makers
##iff
##ams
isol
stra
leaving
oral
incident
baron
##pa
unless
technological
original
dre
realistic
meaning
acquis
pas
largely
running
entirely
pledged
remarks
##cent
##rees
conver
##utch
prize
relative
##ctic
employed
electoral
intellect
heavy
demanding
assets
exhibition
compensation
tay
chain
##onds
desire
reasonable
wonder
austerity
finances
code
belgian
users
endors
committees
moun
thor
exclud
arrived
baroness
morning
historical
90
dyn
##ns
scand
doct
sought
vlad
subsequ
previously
highlighted
##art
margin
professor
tan
suffered
rig
##ilst
whilst
tasks
intellectual
tools
charged
proceedings
confirm
belgium
lia
sell
reliable
fast
##fect
conven
attend
languages
lithuania
labelling
thorough
##lin
interim
bes
visas
theatre
##ero
danger
extension
restructuring
promp
attitude
esc
details
ale
identify
ti
clause
centres
sets
regardless
milk
paying
##abilities
limits
##ugh
thaci
playing
resulting
massive
sort
awa
##standing
successfully
losses
football
dutch
tom
wealth
appar
palestinian
flexible
fost
sinc
depends
brings
phen
tourists
offering
korea
approximately
grue
opinions
phenomen
##osen
save
size
legitimate
incorpor
acce
##him
emerging
ordinary
dynam
entit
generation
inflation
entities
##ena
tayy
sale
wal
##nis
##iction
warning
progressive
phys
exclusion
stations
##add
municipalities
squ
##aled
politically
enhanced
tayyip
wall
##den
##iling
acting
examples
indicated
attempts
sweden
kingdom
increases
##jana
arctic
seeks
##xed
aband
##tising
##ni
detain
gaza
scheme
gruevski
fran
asia
##ernity
phot
registered
gran
lond
night
util
20th
fields
wait
gap
showing
diseases
london
##oring
##ulating
cer
##orate
interesting
##elt
10th
##imb
manag
naturally
birth
gone
##aster
genoc
baltic
entrepreneurs
migrants
resid
resist
powerful
simpl
spokesman
cooperate
raising
civilians
subsidies
settlement
tort
resolving
protests
deadline
stance
died
dealt
detailed
##eth
##uable
accident
becomes
officially
forthcoming
manufactur
standing
voluntary
era
##ived
##asing
##ffer
learning
##alled
negotiation
corresp
resulted
airport
homes
##iev
supplies
##overed
memor
sites
mostly
seats
slovakia
lic
tough
door
tradition
dignity
ky
links
##ract
beg
##active
options
proposing
violation
cas
ram
12th
sharing
mobilisation
kept
##band
substances
genocide
ded
##umb
##ground
grounds
##tise
difference
1992
village
mes
##sified
decade
lawy
correc
applying
400
decre
prem
mayor
judge
##zen
recession
extrad
guaranteeing
honest
treated
hence
ratko
##tians
##illance
lastly
embass
ratification
surveillance
check
##comes
##ros
reve
reaction
##lli
totally
israeli
split
room
observ
##set
acp
amounts
spend
speculation
owned
constitu
interpret
core
parti
chosen
##bourg
complicated
sor
peti
expert
textile
disagree
igor
residents
1990s
infring
##advant
exceed
disadvant
carrying
stras
indict
mother
involves
autonomy
##con
actively
drugs
lob
##uous
diss
below
participating
prisoners
reconciliation
controversial
##bi
##ores
reject
unity
150
suspects
fem
##ett
irreg
river
granting
strasbourg
irregular
prohib
species
##like
##oglu
percent
champions
##orse
governing
##lobod
holds
polls
fug
wto
anton
stip
15th
consequently
mill
##ses
##ifications
cypriots
acceler
##bit
tariff
dependent
vojislav
##ateful
seeing
##lah
##via
commissioners
requests
criminals
eye
catch
pict
entered
##mos
whate
proud
perfect
peacekeep
indictees
whatever
answers
universities
bound
##nik
##osal
applications
appears
exists
approve
ball
armen
solana
dia
slobod
proved
resc
spring
arms
integrity
unemployed
pollution
ponte
tender
reinfor
mosc
multilateral
firms
197
representation
acknowledge
moscow
imb
pul
meant
minute
remove
blue
grateful
regrett
##ison
leads
phil
examine
earthqu
subsidiarity
felt
##uy
antic
##anda
upcoming
undermin
endorse
cheap
oppose
extrem
definition
justified
faith
bomb
unn
channel
discrimin
##vest
##ork
jur
abd
himself
missing
battle
hospital
suitable
nationals
drawing
advertising
lux
white
valuable
significance
strike
quarter
types
polish
##imir
incenti
obama
happens
stakeholders
revenue
correspond
75
##ague
amending
cancer
imbal
##lis
##zy
traged
tackling
##minent
educational
##eva
pursue
tensions
##ify
presidents
turning
affecting
surround
determine
occurred
slobodan
##ira
intends
persec
player
receiving
penalties
sudan
spect
proposes
syria
supervisory
##jevic
refugee
tonnes
webs
unlike
image
representing
contributing
encouraged
aspir
latter
vacc
route
##onents
plays
missions
simplification
rac
##bur
believed
virt
negotiated
promises
intentions
##za
##asts
experienced
arrangements
entitled
tib
meat
supposed
hearing
podgor
nic
taxation
achievement
communications
podgorica
stocks
section
disposal
inequ
detention
##ounting
perpet
refused
pharm
abstained
ci
pir
##gic
guard
ivan
nab
tend
evening
attach
smaller
federal
profits
universal
alex
##aters
##omet
##ieties
valid
preparation
unique
expan
wider
dur
lasting
##oub
##rip
emphasised
christians
texts
cau
woman
located
preced
delighted
experiencing
geographical
##gs
##opard
saa
belief
names
trend
marked
financed
threatened
bearing
tibet
mitro
##ners
##qi
implic
referring
eventually
driving
expansion
5th
aside
##aku
##ques
managing
latin
greens
personnel
gotovina
elsewhere
arres
##emen
easily
17th
passenger
mountain
transit
backed
slight
massac
jeopard
ought
served
lawmakers
extending
##thodox
reinforce
floor
##zerland
switzerland
rot
reporting
##vice
extraordin
expects
wishes
dar
wides
##pread
negotiate
restore
failing
widespread
##nual
fort
proof
incidents
upd
elig
satisfied
##gence
enabling
decline
indicators
eliminate
endorsed
45
card
olli
##here
lessons
indicted
counterfe
djind
nabuc
dair
##appe
possibilities
constantly
##put
##asa
orthodox
##umn
careful
papand
generations
modernisation
fruit
##ora
discip
founded
seekers
spoken
nabucco
club
##anging
foundations
stopp
losing
beneficial
dairy
cup
assume
##rutin
brok
luka
mesic
djindjic
ment
monop
scrutin
undoub
struggle
##osting
units
version
relatively
incentives
##dro
##iled
##ancies
pace
chem
defe
follows
drop
bureaucracy
arguments
demograph
economically
assure
engine
dedic
nav
reun
fine
insuff
19th
appointment
kr
vet
considers
healthy
multian
sentence
intelligence
revolution
waters
mexic
scen
abdul
multiannual
appointed
farming
sales
destruction
ordin
widely
citizenship
street
ppe
recall
tourist
championship
papandre
ko
##house
##vent
##anu
##rov
favourable
3rd
lie
uniform
iranian
obtained
papandreou
bab
##no
disappe
clin
organise
ashdown
speeches
removed
##astic
coherent
undoubtedly
sending
resource
doubts
vig
intensive
visits
poorest
salaries
occasion
bridge
gl
nar
race
##hr
##kov
regist
assum
banja
define
advis
credible
streets
succeeded
welcomes
employers
exceptional
decentral
collaboration
##orter
touch
##right
facts
##factory
extensive
trou
##roduc
transl
violent
11th
ambition
female
dod
dub
sovi
plus
newly
##elj
slovenian
suffici
chapter
phenomenon
knows
victim
expensive
amid
secular
symp
austrian
drafted
##har
##under
##augh
greatly
speakers
investing
undertaken
liter
wage
##atlantic
seat
preserve
delays
##oulos
listen
6th
##ula
season
invited
declarations
ohrid
indictment
rare
story
deals
##look
2014
actors
amongst
dayton
roads
mandatory
confident
legitimacy
revenues
##holm
##ighten
motiv
transitional
imag
jose
##kel
producing
freely
infringe
wine
##kes
inade
marking
unnecess
inadequ
lt
mig
##alle
sto
##quar
societies
transatlantic
affects
promise
absence
stockholm
nonetheless
platform
fronte
initially
prosecution
moved
frontex
pt
##ano
maternity
instability
amended
embar
soviet
alde
assass
urging
visitors
contained
simplify
##gu
##osis
possibly
score
combined
larger
mitrovica
formed
imported
constitute
disputes
transferred
couple
motor
tang
consc
gross
causing
maintained
cutting
##uries
##pel
deeply
28th
allegedly
observers
eb
##mo
##enna
adri
internationally
headquar
ratified
olympics
##ront
##lder
marks
##apse
invitation
inside
features
destroyed
scandal
ech
##usion
16th
reflected
torture
azer
##uild
##stood
immunity
investigations
custom
journalist
certi
34
36
glad
consent
returned
mich
##gm
unre
analyst
repeatedly
fifth
tes
##gory
reass
station
vienna
willingness
chemical
ee
##jected
##enn
##ley
signs
scre
preparations
##ommunic
shortly
liberties
accompanied
frank
manufacturers
7th
da
forests
##sification
##aman
remained
shares
complaints
8th
haz
populations
judg
suspected
drafting
tob
spar
clash
deaths
municipality
anticip
tragedy
extraordinary
ine
focusing
149
redundant
reciproc
55
game
certainty
deficits
muslims
demographic
rh
##cel
sej
offices
dragan
headed
radovan
praised
worrying
embassy
insufficient
4th
alleg
cyc
participated
highlights
competences
archit
utmost
rose
informal
substance
acknowledged
citing
pil
sac
soft
envision
obliged
13th
portugues
obstacle
railway
telecommunic
physical
alexand
vl
wages
background
entering
14th
christmas
rescue
gamb
##emb
usa
relates
smugg
greeks
covering
sharp
benefici
##ule
paralle
annan
feeling
latvia
categor
mexico
ot
presentation
djuk
artists
percentage
##lish
pillar
dos
unions
dynamic
ecb
##ancy
directed
moral
flows
##oting
##fp
##olved
processing
eyes
portuguese
york
##ini
phone
checks
houses
appreciate
ms
map
##gies
##usal
concession
undermine
scientists
dictators
irregularities
dp
##inal
minim
humanity
supporters
meets
tells
category
headquarters
bankrup
english
inhab
tomislav
picture
9th
gar
essentially
collapse
potentially
partnerships
broader
32
##edented
##recedented
smok
trip
terrorists
readiness
surely
unprecedented
regrettable
##econom
##tered
closing
ownership
clarify
gal
length
covers
greenhouse
##diu
rapidly
ef
thres
##ading
crven
funded
necessity
denied
piece
competent
uncertainty
threshold
bail
rock
##0m
##rol
##itals
invested
capt
delegations
sali
abdullah
rid
voc
##erative
smart
revised
efficiently
jointly
killing
earthquake
cul
##iety
##rations
##opoulos
spons
nobody
understood
barb
qualified
veter
condemned
argument
juris
dodik
##rust
noting
##titutional
environmentally
bureaucratic
stic
forg
impression
somewh
boosting
controlled
advanced
ambitions
25th
fishermen
movie
somewhat
##rific
coordinate
blocked
announcement
sufficiently
adriatic
sejdiu
radic
sake
items
consul
contest
warrant
##tivity
heading
topics
authorisation
hoping
occasions
dismiss
tangible
##ita
##uts
##raid
accidents
verd
timely
detri
libyan
##bai
##aming
afraid
helps
regulate
annually
born
distric
30th
patient
massacre
crvenkovski
##baijan
pure
inev
syner
##resh
warm
compete
envis
deterior
newspaper
azerbaijan
2nd
surr
haven
argue
privacy
orient
ineff
600
##int
forec
##rible
complement
achievements
trig
declare
convergence
parallel
##ient
ecr
applicable
exchan
weakness
viable
vast
##erved
liqu
plural
contacts
respects
expressing
shortcom
assessments
iraqi
engagement
shortcomings
mine
entail
alongside
urgency
retire
square
##economic
finish
train
everybody
1998
sensible
cease
college
claimed
calc
gathered
solely
##off
proven
importantly
estimates
33
cited
##uter
coach
##keting
##lif
##afi
archae
##ethnic
unnecessary
djukanovic
cast
kur
kinds
18th
23rd
consultations
##ized
bush
fairly
harmonised
quotas
cam
ts
##wan
accur
warn
precond
regimes
multip
goran
##ych
##asion
##atible
feas
deserve
1991
prospect
conservative
explanations
vladimir
arrests
inadequate
wing
##da
##mic
##oss
paris
##ourg
spite
wars
berlin
dramatic
##uz
accessible
paul
22nd
imbalances
expense
boyc
talked
blame
autumn
reflects
chapters
harmful
##dz
atmos
guil
liberals
liquid
atmosph
##faction
ange
##asc
reaff
##alling
composition
handed
flights
replaced
consolidation
gir
gun
##enty
underline
discovered
creates
defending
weekend
privile
##istics
27th
concentrate
postpone
reaffir
##aceu
brut
initiated
puts
purchase
pharmaceu
hur
forem
advice
books
tragic
suggests
foremost
65
named
##vet
finished
visiting
difficulty
indirect
student
georgi
fears
innoc
patent
coastal
storage
begun
guilty
ships
conventions
census
hom
##vity
##oning
stef
banned
looks
fewer
illegally
professionals
floods
peacekeeping
rout
##xh
##rote
##ecision
##ressive
connected
facilitating
merkel
##urity
computer
debating
diplomacy
donors
fatmir
##erate
congress
shop
entertain
appropriations
sentenced
allocation
mistakes
kal
##uls
##itis
##itig
exit
inclusive
accus
ends
schem
supplement
supre
dependence
branch
tolerance
punishment
800
kla
wake
##ham
except
whereas
2015
##inda
backing
grand
arrangement
routes
tape
wrote
##fies
prominent
older
turnout
undertaking
architect
##pers
##erb
aggress
incomp
clar
expertise
##icked
engaged
remark
surrender
mach
##enko
shi
nationalist
opposite
eradic
prevented
moves
delivered
resistance
jurisd
bak
fit
distin
protectionism
transportation
explos
contrast
##onia
##eda
##lete
sevent
marketing
ending
promoted
drag
constitutes
films
territories
hyp
37
completion
household
interpretation
elder
##rich
##oni
occur
scheffer
injured
43
fresh
##yle
unilateral
democra
ruled
attract
##iki
fails
consequence
diplomats
suggestions
correctly
removal
gradually
hoop
foster
schemes
shut
respecting
accountability
gained
codecision
catastro
catastroph
bott
##ez
eurob
debts
socio
26th
hosted
ignore
##addafi
jere
##govern
demonstrates
devast
##bed
##erce
##ster
##strom
##raft
mining
indicate
drive
blood
cuba
##bih
##ura
passports
imposing
abolition
reiterated
title
gall
shame
##avour
##ceptions
retail
frequently
detained
inhabit
ib
##dk
##ovska
creative
towns
pursu
luxemb
website
scrutiny
vu
##mi
##zar
unb
reserv
agrees
##lla
telling
winter
edition
telecommunications
atmosphere
etc
mps
##otes
resort
impris
partly
corporate
gambling
dossi
supreme
bol
rational
##tur
##onent
dispar
opens
teams
debated
depth
generate
publish
nikolic
millenn
surrounding
dump
nomin
alar
disabled
journey
roundup
robust
gaddafi
merc
##iar
commerce
presenting
outlined
terrible
raw
regulated
caution
ageing
illust
rotating
elderly
##ients
##crip
qualifications
delayed
intervene
respectively
allegations
cash
##orad
stem
romp
crossing
genuinely
tai
##oles
productive
satisfactory
advantages
implications
tobac
luxembourg
38
pose
anci
##imer
outstanding
arbit
reloc
beings
corrid
contemp
##institutional
tobacco
bench
##stone
intergovern
falls
macroeconomic
display
decentralisation
42
##92
hashim
interinstitutional
compuls
twice
croats
convince
ancient
##orous
##acted
usually
##licit
activists
hazard
kil
song
##quis
marine
feature
traian
considerably
campaigns
dropped
horiz
besides
intergovernmental
jos
##ids
notes
label
surp
reiterate
psych
stopped
fled
scep
presents
##tisation
austral
choices
deliber
mistake
redundancies
aspirations
retirement
compulsory
48
lands
ven
allies
clarity
officer
hopefully
prevail
salary
vessels
mitig
visible
researchers
attractive
ebrd
exac
string
explicit
feat
recognises
hunger
investigate
winner
karaman
ratings
verdict
reserves
producer
regarded
transpl
sarko
consistency
destination
millennium
karamanlis
5m
##sa
sport
continuation
urges
moroc
undertake
inhabitants
pac
##ucas
stressing
career
recommended
250
articles
ben
##ya
##jc
programming
romanians
islands
registration
taiwan
sarkozy
00
wi
##iliation
param
enfor
shape
league
recover
motions
viewed
suspended
damaged
hoped
observed
conservation
surprised
petitions
discipline
46
gj
vow
yemen
##gans
stages
accomm
models
timber
accommod
cath
wors
endang
deserves
milan
wai
renewed
insisted
rebuild
dictatorship
##fers
##stuff
farms
corner
colon
pleas
burdens
flags
##aves
chances
milorad
integrate
falling
29th
ngo
stimulate
dedicated
rompuy
sv
vide
wra
##aring
intercon
uphold
##place
index
ahmet
enterprise
mlad
vehicle
evaluate
antonio
jeremic
700
##rators
##rier
serge
##amo
##avier
croat
transposition
appeared
suspic
copy
ukrain
associations
travelling
lag
##iated
##prom
##erted
##oler
optimistic
trigger
grants
mun
nord
##etic
##sify
install
persist
smoo
equival
earmar
findings
trials
momentum
tick
weight
serving
cope
prelim
ende
dispro
24th
doctors
lawyer
exchanges
wave
##rum
##nier
reply
solved
settle
bosniak
variety
messages
municipal
entertainment
exacerb
b92
##inger
prere
compr
publicly
ensured
demanded
tuna
renov
eeas
smooth
pes
##lock
##stan
##osy
##osing
unres
enth
selling
struck
warming
airports
persecution
preliminary
prerequis
##ona
##verse
ecological
adds
factory
gets
persu
##ika
120
lowest
monitored
functions
recorded
sacrific
beneficiaries
organising
evident
teleph
predic
stimul
fortun
district
cs
dink
hdz
ras
##oly
##gur
contam
fires
location
winning
pragm
gulf
isolation
subsequent
narrow
imagine
assassination
dispropor
sfor
##rary
##mans
disrup
turks
depri
adverse
intelligent
slightly
zero
##igned
maybe
simplified
disappointed
subsequently
residence
pharmaceutical
seventh
bil
cards
father
vel
##gi
##oric
parv
mines
remed
ordered
refuse
operator
datab
collected
regularly
displaced
extradition
forgot
orientation
44
buck
hin
lists
linda
serves
##tegr
abuses
invite
consistently
bureau
errors
accusations
interconn
fans
gy
##janovic
livest
transn
formally
openness
necessarily
statute
ministries
sorry
endeavour
enthus
livestock
hum
kne
ports
##son
web
trends
underlying
placing
deployment
false
democratisation
##antly
accounting
monu
assured
providers
airc
interpre
john
straight
ott
kov
##erving
hamas
commem
finland
governmental
traditions
directorate
restricted
hydro
categories
##jud
mart
sentences
fulfilled
jurisdiction
aqu
repression
medal
distance
justify
pilot
##her
##kom
##ori
interference
recyc
196
buying
##iceanu
hardly
electrical
statistical
resignation
##iro
inau
##andum
specul
traj
foods
famous
emphasises
suspension
performed
arrive
manufacturing
advocate
surprise
##ijing
memorandum
##aughter
##ee
##hab
##ws
rely
beijing
accom
geneva
awarded
branko
vocational
kon
sis
##ault
##entive
##anamo
resett
##antanamo
banana
scene
guantanamo
milos
periods
accompl
ja
qa
roll
enables
##ologists
satisfaction
enthusias
aircraft
nov
rome
tighten
##yal
meh
##enses
capabilities
##whel
absor
teachers
excluded
purely
disproportion
fro
lan
europol
shift
overwhel
guine
1990
basically
volume
safeguarding
broadcasting
sympath
thess
##itives
notably
sah
insists
owner
tariceanu
critics
suspect
drivers
experiences
javier
nom
##oe
beat
governor
arising
promotes
realised
grass
blocking
karadaku
holiday
bog
fate
##gen
##war
##ropri
##ulz
atroc
doors
timet
natasa
fugitive
echo
concessions
##person
waiver
##stuffs
47
baj
hat
conce
accordingly
irre
describing
withdrawal
exclusively
lobby
##liferation
cult
pays
##oud
stan
solving
raises
refers
contributes
returning
learned
smuggling
##osyst
som
sand
##aded
##tinational
sees
##ressed
##ounded
profile
multinational
ast
rum
sn
##alon
park
incentive
transfers
procedural
caucas
ramad
fought
ecosyst
lajc
crow
launching
observe
capacities
ranking
mobilise
elimination
fixed
coherence
fragment
alarming
lajcak
band
##bing
##ware
##stre
imperative
##llor
systematic
listed
filed
obtaining
halt
na
disabilities
desir
earn
containing
editor
adaptation
eligible
km
son
##bre
##kt
intim
##ato
unrest
resident
lived
macedonians
approaches
ideal
stresses
poet
parvanov
thessalon
##can
##aling
cancell
incomes
termin
defining
openly
aiming
malta
medicinal
ignored
academy
gri
hiv
novi
soil
afterno
regulating
fulfilling
ratify
dominated
navig
innocent
##ku
##tious
##ste
love
depos
avoiding
chancellor
consolidate
cancun
telecom
retired
managers
forgotten
ottoman
thessaloniki
zones
##tified
novel
subjects
contradic
denmark
enhancing
david
unanimously
equivalent
51
bonds
pav
##utin
##aces
mep
exposed
uses
threatening
lacking
demonstrations
decrease
qaeda
acted
blow
norway
ski
demonstration
revealed
rain
ranging
neut
impet
opponents
aids
mixed
preferences
aleks
monopoly
impetus
bon
cold
dual
faster
##rates
proliferation
##adin
shel
decomm
securing
stipe
depu
profound
airline
caucasus
afternoon
decommission
fbih
ling
stal
##usic
##lls
expecting
recognising
camps
volati
grave
gazprom
ohr
prompt
perpetrators
shipping
neutral
sri
taj
##ali
commod
highway
subjected
communism
initiate
emerge
sudden
reunification
josip
ang
##itors
##ched
issuing
overse
awards
passport
focuses
pushing
volunte
survive
error
inequalities
fines
manuel
arise
reductions
unified
oriented
runs
thousand
characteristics
forestry
spectrum
dil
##ael
##opol
clearer
responses
quote
extrac
dimit
examined
lifel
perfectly
diagn
customers
notice
box
diplomat
georgiev
arguing
simplifying
hiding
##ga
##rog
##atell
trace
usual
pret
violated
emerged
driven
preventive
autonomous
piracy
distinc
hus
##hi
##alia
forese
conve
peters
doesn
responding
briefly
convicted
sincerely
##roductive
earmarked
martti
relief
thirds
indication
argued
rejection
mix
japanese
outer
fragile
##letes
marginal
abandon
brutal
dossier
buckovski
unequ
preserv
doha
usd
manip
##mann
broadband
clauses
golden
##respon
disappoint
overwhelming
##los
##zhe
organs
##estation
intoler
transaction
principal
sky
collect
irrespon
misle
responded
strictly
veto
reciprocity
hazardous
bay
appla
everywhere
borrow
harsh
acceptance
unfortunate
killings
negl
malm
predict
capture
stick
stringent
pn
tub
vit
##akis
pollu
ensures
authors
makers
secondary
ranks
comparison
boycott
guinea
##zheimer
malmstrom
ease
##ray
ante
##ares
##ario
alzheimer
hamp
shot
seg
originally
damaging
stepped
relationships
badly
transformation
smoking
95
##ola
storm
shock
concert
handling
selected
corrections
rhet
ukrainian
85
##per
##anas
parad
mothers
confront
swiss
psd
channels
disparities
preservation
jean
evol
frust
bigger
returns
denoun
patri
deadlines
prague
gradual
confer
planet
attrib
avoided
renewal
ranked
counterfeiting
unresolved
##tine
##ette
economics
boz
looked
adequately
exploit
sincere
ba
nl
sds
attain
poss
clas
quan
talat
addresses
listened
athletes
calm
radioactive
mental
stefan
pestic
outermost
cos
eventual
treas
pursuing
enjoyed
resettlement
41
bills
dates
##uated
politician
acta
conducting
removing
postponed
breaches
liability
bottom
pit
pending
rug
wood
##ket
##arious
prejud
discre
whereby
pressing
encoun
lesson
donor
safeguards
telekom
pillars
apparent
##ometric
53
##aunch
stood
##liers
corrupt
provisional
##laim
strive
31st
##book
exemption
explanation
clashes
cens
hes
jess
mort
##aur
##atri
##ults
##raf
refusal
meantime
keen
destabil
panel
characterised
australia
ilo
##mun
##esco
##tini
div
##tenance
maintenance
franc
reintegr
belonging
robert
isolated
manager
multiple
liquidity
morocco
din
##back
##orti
##ower
unesco
##tingu
compatible
signals
estonia
evasion
flu
credits
assessed
alternatives
drew
judgment
kurds
reservations
fue
yield
##ole
##oiu
prud
indis
##ajic
confed
promising
suppliers
equi
investigated
compromises
explains
caught
accurate
architecture
dumping
timetable
lifelong
applaud
bird
page
##bel
##astern
diox
opt
arts
enshr
monthly
considerations
flight
precarious
authorised
miros
spokesperson
conservatives
villages
intimid
deputies
mere
vent
##ifying
##tering
unw
##enders
component
analyse
totalitarian
strikes
harmonise
##ofias
acquired
christofias
survival
software
sponsored
wife
fly
satell
tac
tens
##ize
##fire
reactions
unj
worried
##titution
continu
scar
limiting
distur
wording
conviction
accelerate
pluralism
eurobonds
49
54
ki
od
##van
##vod
##iger
solar
establishes
strongest
similarly
witnesses
struggling
admitted
academic
newspapers
##break
miroslav
nis
##ulates
exceptions
god
##iel
perce
biometric
handle
costas
receives
adapted
medicine
inhuman
weaknesses
pacific
cig
nurs
sme
##otive
##mro
##ortions
##mentally
congo
reput
consorti
##agn
insisting
forming
formation
quanti
globally
passing
connections
argues
heavily
dream
fugitives
havens
inaugur
aleksand
die
fash
ivica
alco
accountable
billions
posts
##ography
symbolic
apparently
discriminatory
clarification
telephone
alcohol
pic
##iles
resume
constrain
attempting
dimitro
diversification
lithuanian
disadvantaged
scenario
prerequisite
hed
wild
ant
counts
liked
stric
disastro
syn
schulz
voices
fallen
philos
disastrous
##enous
onto
##ima
reserve
##inking
productivity
directors
barnier
restrictive
familiar
automatic
hospitals
lawyers
trouble
michael
bankruptc
tuberc
fashion
stricter
philosoph
##vit
##rage
hasani
transmission
relate
financially
movements
candidacy
accepting
kyr
##burg
rhetoric
39
rally
vmro
##enic
##itably
##acic
coinc
cofin
voter
remit
delegated
unclear
devoted
celebrate
deployed
dismant
lobb
girls
bought
##ives
##mne
thro
##ecd
weather
attending
fundamentally
threaten
absurd
audi
suggestion
frequent
quota
abandoned
corridor
pragmatic
misleading
swe
##inery
neol
admission
##tel
minor
##ordan
mostar
metres
indicates
dependency
determining
silver
escal
petersen
ow
##ulosis
##ounted
twenty
affir
pointing
delivery
mutually
eliminating
vojvod
disappear
surplus
tuberculosis
##point
##vo
madeira
restaur
foodstuffs
##azz
fishery
##turn
atrocities
ll
ug
##bal
##ils
mem
seized
martin
assisting
root
annex
1996
irres
##marks
##berg
inher
permitted
unanimous
assumed
adviser
alexander
jessen
satellite
gang
hall
##ede
##ili
reverse
reperc
incumb
ministerial
helpful
systemic
carla
objections
##iberal
##ashi
claiming
severely
divisions
motivated
cycle
stimulus
repercussion
##ror
##fol
##xual
##ocking
outlook
boy
speaks
counterpar
deepening
temper
transplant
decommissioning
bed
jail
nice
sight
##osia
##ounder
minors
reforming
##azi
laying
copyright
rugova
consortium
sdp
##ding
##gers
##zens
##olas
##utoglu
marri
worker
poses
anywhere
##oked
concluding
##board
advocates
flooding
occupation
precedent
infringement
repercussions
##eces
##acing
sam
##gyz
verts
bulgarians
1993
portfol
wins
expanding
precondition
horizont
pleasure
kyrgyz
irrespective
66
dus
jer
##lining
##ell
throw
leaves
seas
2050
dozens
distingu
reluct
wherever
popul
writer
encourages
selection
tennis
davutoglu
painful
dom
dup
iz
toxic
##oto
workforce
welcoming
assistant
republics
practically
generated
intense
gaining
distributed
breaking
rigorous
cathol
incumbent
bah
finger
rough
##ala
sugar
economist
spot
medi
medals
194
barcel
emo
assessing
concentration
grassro
counterparts
barcelona
brib
sends
zimb
##car
##zing
##outs
eufor
hell
repair
##abwe
nobel
insec
centuries
empty
businessmen
sustained
reviewed
tribute
steel
divide
fuels
dictator
stojan
dpmne
households
frozen
zimbabwe
ay
oz
vene
##ping
##fall
chose
##ultane
conciliation
laura
195
competing
guide
milo
requiring
simultane
organisers
veget
##ublin
footing
##anishev
borisov
fleet
pasok
entrepreneurship
sparked
hinder
desirable
grassroots
ds
kra
##uv
##uro
##ensible
stanishev
sphere
crack
scot
turkmen
identification
records
inspections
feasibility
aquac
dublin
##mis
##askovic
bee
##oski
ham
sums
##esty
##ointing
problematic
##ibly
coordinating
infrastructures
coverage
linking
troika
magn
reinforced
##eljko
convey
disappointment
deciding
investor
finds
excuse
ordination
##appropri
witnessed
prompted
broken
conscience
hypoc
navigation
56
dss
rush
andre
reward
##ows
parliamentar
protes
confron
begins
orders
sessions
worthy
examination
substantially
hotel
aquaculture
kab
thinks
preserving
diary
##ongue
overcoming
congratulations
permits
optimism
awaiting
envisaged
irresponsible
murd
##ca
reimb
##aken
moon
posed
thanking
assurance
actor
integral
operates
appeals
missile
freight
thoroughly
petition
roles
##ho
peter
relatives
bases
bron
estate
depl
democratically
bids
##addy
dinkic
##itate
regain
consists
esf
costly
founding
essence
iron
inspect
automotive
expanded
reactors
incorporated
josipovic
pesticides
vojvodina
horizontal
duplic
putin
##nish
recast
sectoral
generals
broke
##atorium
concludes
identifying
predecess
suggesting
churches
reinforcing
equipped
reputation
safer
carriers
tourna
execution
friendship
comparable
interventions
undermining
disproportionate
neoliberal
cec
paddy
ally
##rav
##endar
indig
output
prete
yourself
listening
##oyan
tonight
abolish
logic
1989
champion
armenia
unlikely
video
bb
##hard
##zes
##inated
rehab
##ider
disreg
##forestation
continuous
depending
pressures
challenging
crossings
secretari
answered
functional
moratorium
democrat
egyptian
undertakings
ljub
##grading
envisions
jaap
cultures
hu
parent
commend
impunity
##ooting
pull
##undering
ibra
enshrined
foss
kh
pfp
sie
##ila
##iring
leban
##ovar
recons
trained
confirms
tackled
icj
draskovic
derog
nicosia
database
52
fol
lacks
mit
##mal
##ata
##emic
grown
wartime
##unction
asset
slowly
celebrated
attached
clinton
##cription
bankruptcy
rehabilit
59
62
lending
tight
##lity
##pt
##pin
##tify
##urances
##idden
marina
competit
advances
industrialised
ult
drastic
learnt
controversy
flee
murders
indigenous
cot
##cr
##erts
##urt
brand
##space
criticise
deny
##hne
condemning
belarusian
doctor
disadvantage
vujanovic
mehmet
jel
jazz
##estim
unh
exha
impar
socially
knowing
defended
blind
facilitation
pursued
corporation
observation
jeopardise
recycling
cigar
protesters
57
az
fun
pave
wise
##mn
##stad
valen
restrict
pieces
adapting
punished
escape
devastating
traceability
bond
##woman
beau
deem
shooting
##entia
handled
modified
didn
airspace
sixth
hungarians
attacked
complexity
petro
constituents
cin
vary
input
lev
interf
outbreak
scra
harass
ceku
daniel
examining
inequality
vigil
paramount
turkmenistan
tournament
luck
vas
##hear
##akh
serv
signatures
facto
definitive
praise
stabilise
inspection
consolidated
purchasing
cioc
inevitably
volatility
reintegration
mp
##pens
##mend
ana
sho
chp
intermedi
southeastern
filip
demonstrators
modernise
hosts
defenders
multiethnic
canadian
diverse
reception
enforced
bajram
61
63
hide
wis
##zan
enabled
##ocratic
propag
overlook
completing
announcing
declined
demonstrating
selim
dangers
separation
preferred
victor
vowed
lingu
bronze
ciocoiu
fill
jump
niger
##fort
##tioned
##ulty
kosor
nationalism
harbour
silence
fix
explicitly
venez
##stadt
gh
nan
enem
afterwards
conditional
techni
opposing
indications
availability
##apsed
performing
performances
armenian
synergies
ceasefire
transnational
ibrahim
imparti
fuk
gaps
kid
nast
##cs
##eni
align
conting
##iry
suit
##teen
sections
uphe
solvit
mainstre
restoration
charging
ethical
respondents
##erta
satisfy
founder
ol
wil
delic
semin
incred
desired
suspend
audience
dimin
excellence
designated
blog
triggered
nordic
hatred
pretext
58
67
dere
##tite
asks
##utors
suic
##usa
imperial
lift
mustaf
overha
##racies
haradin
properties
innovations
ivanov
exploited
ultimate
honoured
##onym
consulted
fossil
gear
pick
tor
##ios
##do
##tia
##ino
proves
stav
##acan
undp
##oda
expenses
underlined
publication
everyday
controlling
moderate
1997
labor
positively
reflection
separately
logical
detrimental
gallery
knew
nomination
constraints
64
hect
testing
##ouses
disar
outset
blerta
educated
ideological
sooner
##atories
unders
moldovan
##boj
entails
##stein
fab
ther
proactive
asian
##orted
interrup
translation
differenti
write
pensioners
standardisation
ambassadors
voicing
automatically
fourthly
tariffs
corresponding
secretariat
cinem
erup
##long
##mail
rexh
##mped
components
giant
starts
refusing
##ushima
deeper
gains
abolished
artific
troub
disregard
venezue
foni
ziv
##kan
inappropri
anx
deforestation
shap
##osexual
arena
nationality
realisation
emphasising
chaos
surprising
##exp
monopol
camer
aggressive
73
##sf
##17
##antive
inqu
outgoing
likewise
pregn
##aterally
combination
##ofi
rejecting
korean
textiles
detriment
forecasts
indirectly
##opolitic
fukushima
foniqi
bag
bold
row
sid
slo
wol
##eit
##uf
reop
##lets
prin
##mester
genetic
restored
packages
substantive
normally
incorporate
nastase
aus
##otic
unch
counting
shif
leak
confisc
geo
allocate
acquire
predomin
magaz
await
stipulates
eligibility
dismissed
warmly
imprison
distinction
rexhep
##kg
##jman
##omir
weigh
##ung
##soever
internally
proclaim
legacy
syrian
accords
revise
shortages
damages
barrot
nikolovski
attracting
constituency
koz
bakoyan
pursuant
kyrgyzstan
beauti
haradinaj
doll
gsp
rice
rama
##iner
##orously
disability
whatsoever
assurances
civilisation
geopolitic
fairer
ivanovic
dui
kurdistan
palestinians
maxim
defeat
persuade
indispens
ldk
##umed
abortion
fees
rape
ceiling
advocated
##ophob
swiftly
muham
remarkable
pnr
dusan
gest
mc
##iri
dear
semester
markovic
basel
popescu
apolog
reminded
occupied
photograph
virtually
venture
cofinancing
indispensable
dpa
fier
gue
rival
##rag
notion
manif
##ela
##orship
##athers
perspec
bosniaks
pool
intensify
danish
master
injuries
belongs
counterfeit
migrant
sympathy
somalia
servants
perspectives
78
c7
##sek
mel
finnish
monaster
systematically
condol
questioned
brother
condemnation
watching
##chell
cheaper
dark
update
catholic
cote
hurd
kofi
sns
##aid
##eds
##ulous
##estone
governed
artis
laundering
object
overs
freeze
references
flat
justification
lukash
proportionality
babacan
homosexual
parliamentarians
linguistic
72
900
dal
fan
pie
##iving
##asm
style
##ours
disgr
assigned
discover
##urred
roman
reding
##worth
locations
legality
papers
documentation
highlighting
donation
allev
pushed
falsified
mladen
lanka
rexhepi
lukashenko
backs
kaz
targe
##ded
store
stating
agents
simpler
singer
##ibb
##law
investigating
readmission
lifting
ivoire
ljajic
efd
aleksandar
beautiful
targeting
99
et
##ix
unil
incons
amounting
##ativity
courses
scores
quo
favoured
slav
finalised
hearings
criterion
poorer
existed
analyses
epid
riots
wonderful
cfp
gord
##rew
disse
verification
elab
roots
scan
regulators
##ugen
confidential
attempted
stepping
islamist
clarified
maur
extremists
kras
angel
inappropriate
holid
##udes
verhe
relax
energies
supplied
collecting
shortage
contrad
describe
replacing
complaint
seemed
mosque
sadly
synergy
featuring
holidays
verheugen
bow
ses
##grating
alive
eurovision
recruit
notic
outrage
crops
basket
slaughter
strengthens
downturn
profitable
oldest
harder
delivering
batt
taxpayer
boundaries
fortunately
mustafa
overhaul
cites
lov
##ky
heating
goog
##llers
coe
fired
measuring
##feld
specialised
capitalist
facebook
driver
railways
alike
teaching
titled
mafia
fostering
engineering
benchmarks
psychological
propaganda
dereg
dacic
lays
math
##ba
##bly
forcing
##chev
permission
submission
##assing
redress
electorate
traffick
deadlock
advocating
davor
spreading
inevitable
kilomet
contamination
##manship
remedy
philosophy
memory
contradict
kn
##zko
##ires
interethnic
worksh
whenever
##fta
faculty
younger
influential
missed
murdered
collabor
vaccines
klaus
husband
perceived
lebanon
rub
sak
##isa
##sement
unknow
chern
democracies
secured
albeit
confusion
foreigners
differently
globalised
specialist
specialists
prosperous
influx
provoc
estimate
contractual
indictee
updated
extraction
competitors
google
luc
oce
que
##gl
inzko
##idar
##the
##cher
underlines
lamped
introduces
communicate
authoritarian
enjoys
artist
civic
mercos
monuments
dioxide
inhumane
3m
cvet
gb
pope
##ua
##kul
anch
##through
tract
upgrade
addiction
bananas
caribb
prisons
brig
draws
arrival
breakthrough
convincing
iii
americans
catal
incorrect
gathering
affordable
accompanying
cautious
literature
screening
bailout
vitally
imprisonment
inconsist
lampedusa
mercosur
caribbean
ker
nag
ze
devic
orch
##ago
elite
recommends
silent
ae
kicked
lend
wire
beef
enrich
signature
milovanovic
restoring
wholehear
hosting
eliminated
durres
ordinator
milososki
emotion
folk
eve
##udi
underpin
protectionist
schwar
borne
successes
turns
burma
jew
liberty
exclude
traditionally
casp
partially
judgments
deemed
condolences
unknown
1m
koc
poul
##try
##rin
##att
unite
neboj
enters
##aki
atom
decides
noise
##partite
##hips
evac
opposes
brothers
senate
neighbourly
encouragement
viability
consolidating
weapon
resigned
hotels
ballot
undermined
defeated
disgrace
devices
83
##dor
##uate
##gain
theme
toll
##print
accessing
capability
approaching
tripartite
clothing
understandable
explore
choosing
defici
100m
richard
comparative
evaluated
extremist
tibetan
translated
konj
traffickers
b7
cf
tone
wan
##kal
theory
##ald
revers
repay
expos
workplace
manoe
agreeing
instruc
modest
risen
offsh
roadm
england
striking
##ization
accelerated
infringements
testim
sharply
ineffective
landsc
ticket
sdsm
roughly
geopolitical
nebojsa
bare
coc
gau
icc
##tile
stead
resumption
impas
wasted
cruel
biological
##cepts
blan
sla
##ologist
maintains
##ashed
guidance
withdrawn
extremism
correspondent
deterioration
ecosystems
nurses
simultaneously
predecessor
98
jad
jordan
nich
snow
##power
impressive
strange
##emal
rooted
continually
creativity
capita
barric
110
mih
evaluating
photo
kyoto
usaid
archaeologists
manoeuv
76
dance
nut
##kon
##ji
reacted
##pper
shield
##alli
##ogues
milestone
schol
library
expresses
cyan
124
combine
sciences
restricting
custody
defendants
tested
##mament
virus
broadcast
nominated
valentin
bakoyannis
eag
fib
##iere
##how
##alistic
hailed
##etting
presidencies
verh
underestim
securities
carrier
##ivoc
independently
cyber
offence
flaw
swim
mentioning
indicating
capitalism
pattern
publishing
attracted
switch
##moil
catastrophe
speculative
intimidation
interfere
cvetkovic
2m
eec
han
ion
##pi
##mert
##eding
impacts
boys
integrating
advisory
substit
dimensions
acknowledges
contemporary
censorship
disarmament
poultry
74
eigh
tent
##aution
##wer
##jak
##eri
prolong
stad
exert
##ovac
sealed
##istence
##veli
violate
madrid
##jelic
precaution
##ofstadt
weaken
merit
petar
pledge
spokeswoman
schedule
stimulating
meaningful
memorial
stipulated
peacekeepers
fruitful
cornerstone
rehabilitation
orchest
verhofstadt
##dam
toys
##olos
##acting
alert
conform
eco
exporting
intent
appreh
specified
bargain
liberation
offences
generating
stabilising
permanently
fault
destroying
settled
travelled
partial
mountains
forecast
enthusiasm
patriarch
delicate
suicide
hectares
oecd
##yp
##vi
##jub
anger
##stat
lehne
turmoil
clust
requesting
negotiator
realities
surf
tank
license
bluefin
conscious
mediator
##lers
##tp
##ny
##yet
##fi
##tification
##ulsion
uncom
##soft
minds
peak
protects
medved
helm
loyal
equity
topi
thoughts
braj
malays
calin
microsoft
exceeded
prohibited
lengthy
suddenly
bahrain
muhamet
77
mik
pdk
tail
zap
stone
##ovis
orph
amn
timing
arises
##titudes
##obyl
banning
negotiators
norms
restrain
structured
performers
tremend
mobilised
adjustments
exported
exceptionally
ngl
renown
certification
anticipated
shopping
deprived
cancelled
franco
kabashi
vigilant
chernobyl
impasse
djelic
##lod
##aric
stagn
abst
dozen
maria
relaunch
indicator
prostitution
130
connect
fulfill
rank
cubic
warnings
fledged
sahara
amnesty
sin
##lenda
##uit
##enant
##isen
##cevic
##iable
prlenda
##ustain
abide
dementia
##well
cloned
default
legislature
supporter
1994
offensive
encomp
georgie
chairmanship
lifted
appreciation
unsustain
dramatically
bridges
margins
partition
reassure
frankly
pursuit
sergey
suspicion
commemor
unequivoc
portfolio
tied
##iet
beach
##lements
comfort
concepts
polling
repatri
county
computers
##ami
remun
grew
maturity
fron
seconds
freezing
operated
circulation
restriction
gratitude
cooperating
concentrated
liaison
utility
websites
bankrupt
postponement
ramadan
stalem
harassment
roadmap
68
71
88
81
fule
fasc
hidden
pup
tables
##ption
##gas
leverage
exped
indian
##apest
hadzic
empire
modes
phr
ambig
threatens
holders
drilling
illness
supervised
palestine
symbols
classes
vlado
##coni
##rovnik
dubrovnik
archaeological
flagship
lobbyists
lobbying
audiovis
insecurity
artistic
noticed
audiovisual
bram
figh
hi
ict
opel
tear
##adays
##unt
attitudes
liveli
dog
concerted
nowadays
assad
croatians
locally
seriousness
passage
administrations
uncond
detainees
cultiv
fragmentation
stalemate
livelihood
gn
jar
lake
tam
##rance
thir
##urg
alf
dele
##utor
dias
plain
economists
complied
intr
concerts
perception
lazar
warns
frameworks
successor
wished
appropriately
files
misunder
intensified
chaired
steering
guiding
manufacture
minimise
feasible
deliberately
paradox
unjus
oversight
offshore
nano
pock
ring
zeljko
conj
##tery
unve
##oper
interd
coff
monitors
appalling
##aught
fee
produces
193
##mentioned
posted
142
inspired
ignoring
acknowledging
destinations
disappeared
predicted
foresee
techniques
deficiencies
renowned
82
bin
epp
hr
vague
##cont
##eski
##idence
stamp
##imet
reformed
reviewing
keeps
breast
drinking
observer
supervis
purchased
paragraphs
mirko
vukovar
confirmation
dubbed
preconditions
magazine
unilaterally
basketball
cyanide
fathers
senti
##nan
##rem
unst
saudi
##iances
approving
cleared
forwarded
feels
brain
departure
brazilian
certific
imprisoned
absorption
bogd
poetry
venezuela
##mertz
unsustainable
brammertz
diaspor
gab
g17
ken
pand
##isiu
acute
shops
moisiu
budapest
affair
blamed
barrier
summary
##laf
nearby
papad
designate
##shori
appearance
curb
wrapped
classified
stojanovska
zivkovic
fierce
86
cad
fta
mol
svet
##cy
##isations
parame
##usted
##tically
tran
interoper
coel
coex
differing
viet
childcare
letters
flor
140
bread
poorly
conventional
executions
palace
celebrations
tolerate
transformed
replacement
unanimity
manufacturer
premises
unrealistic
privileged
reaffirmed
machinery
colonel
hedge
unhcr
coelho
eat
kemal
native
pse
toward
unus
##una
saved
heat
##ourge
adrian
user
verify
globe
mentions
construct
cell
emergence
goldstone
compensate
350
rebels
degrees
typical
reveal
veterinary
arbitrary
stankovic
diagnosis
sweep
kozlod
exposure
brajshori
diaspora
c6
cry
ero
tabling
##tail
beating
sta
convers
ages
helic
contents
##acevic
favours
questioning
##ikusic
violating
revital
haris
criticising
individually
##rehensible
blocks
trialogue
exercises
mobilising
sensiti
pledges
reconcile
embargo
branches
dimitris
marginalised
quantity
scarce
vietn
helicop
oetting
olaf
tab
##vance
##anged
anonym
##ingual
consp
resolute
formula
carries
employee
opera
skilled
winners
argen
separati
factories
injus
disappointing
platforms
decreased
endangered
quantities
wholeheartedly
medvedev
kozloduy
oettinger
gues
jac
tuz
##sch
##yar
shoulder
marovic
policemen
##oney
mediation
trains
technically
patents
tunisian
occurring
stories
explosion
interpreted
gesture
alleviate
konjikusic
stadium
amp
breat
dating
gates
ned
pig
sle
ta
tongue
##organ
##eded
##rolled
eurostat
unexp
agim
##ested
adhere
abused
ours
accum
belene
hero
corre
frat
preparatory
applicants
tasked
acquit
vaccine
mitigate
rebuilding
accomplish
commodity
odds
thrown
reimbur
hoc
male
##water
ingr
inability
stret
##itise
##ches
##meti
##iana
##sifying
somebody
bojana
mayors
smoke
wheel
weekly
fairness
describes
exercising
devote
multilingual
scandals
tihic
angela
cautioned
intolerance
cosme
krasni
landscape
precautionary
guests
mile
sick
##will
##jug
projected
##olab
unt
chairs
orban
seal
admir
preserved
ecolab
##iph
accessibility
visibility
legislators
refrain
transported
investigative
##zek
submitting
deepen
horse
courageous
travellers
incidentally
confederal
thermal
unchanged
barricades
krasniqi
dish
dare
hik
agg
##anta
plot
committing
##ajd
goodwill
refuses
administer
jankovic
exploration
organisational
documentary
connecting
explaining
hostage
limitations
staying
drafts
bombing
discriminated
assuming
##harov
ridic
crowd
shocked
nigeria
upheld
aege
ingred
flying
overn
##backs
##born
##hran
haj
appl
undergo
extends
##atherine
failures
wrest
strip
uncont
erdf
exploiting
merits
microfin
voluntarily
##graded
phenomena
barbut
consulting
uganda
contingent
slavery
aegean
gases
ly
oli
##iest
##ratory
##group
##org
##thes
alto
##uta
habit
une
##ourse
demet
somehow
asser
anyway
responsibly
hopeful
earned
erasm
republican
cefta
##umph
influenced
striving
pledging
##maker
reliability
ljubl
retained
cuban
embassies
luxury
tickets
exacerbated
renovation
continuity
reconsider
kazakh
1244
barbutov
altogether
erasmus
duly
gay
lady
mail
rt
sided
##bio
##oid
##kic
##onou
##atovic
##itative
##eta
measured
processed
annul
relevance
fulfilment
complying
diam
##usalem
featured
kovacevic
tajik
tajani
bozidar
jerusalem
beekeep
cotonou
ausp
monastery
testimony
barely
jacques
overnight
catherine
dn
fdi
honey
ip
loud
porn
sve
##far
thail
pray
resumed
shr
implies
plenty
compli
boats
tehran
deport
ideology
erg
denying
osse
premature
dissatis
undermines
glass
accommodation
attributed
impartial
geoana
sakharov
tractors
thailand
84
ju
lect
mcc
tet
##ras
##kh
##ken
almun
##endos
exporters
inval
marko
biof
##ranka
corps
##lusconi
benefited
gerb
counterp
religions
donations
harmonising
berlusconi
sceptical
scotland
monopolies
conjunction
almunia
biofuel
lap
##town
##rs
##5m
##ilia
bears
prer
compare
marija
outs
somewhere
##emocratic
##manovic
questionable
infected
ethnicity
antibio
rounds
1980s
acquisition
walk
photos
duration
supplementary
stemming
worsening
siege
inquiry
auspices
69
portion
##ym
dejan
seize
worries
ecof
expulsion
clients
immen
schilling
infl
prevents
labus
absent
movies
modernising
transferring
blackmail
silajd
preferential
exemptions
entrepreneur
observations
disagreement
racism
sacrifice
conferences
prejudice
boyko
confronted
artificial
parameters
immense
silajdzic
bom
fant
kir
naz
wounded
##iant
##lovic
##hor
##isic
##rop
##lejman
turbul
remote
##ursed
meta
wishing
georgian
methodology
paternity
executed
probe
teacher
exempt
anticipate
tsun
speculators
##ophobia
substitute
restraint
tremendous
prerog
ecofin
hill
les
py
tat
tries
##zi
deuts
expe
##usting
pride
sab
chron
spouses
sof
anybody
##prin
##gestion
benefiting
##fiable
brave
codification
pipelines
bitter
guardian
eradication
oversee
possession
disturbing
dimitrova
duplication
schwarz
caspian
atomic
unexpected
bans
nimet
stalled
reproductive
##istrib
lamb
lasted
plane
capitals
blair
jusuf
downtown
colomb
indiffer
cells
investigators
broadly
hardest
tempor
chemicals
privileges
mladjan
trajkovski
contradiction
commodities
inaugurated
restaurants
vegetables
vietnam
filled
gor
hub
jak
jury
lav
taught
ud
##lov
##mad
##zren
##antin
congestion
##rition
engin
##usive
##ensity
prizren
legend
##oboda
russians
transposed
nons
distant
obligatory
reflecting
neglig
associate
reaffirm
novak
unwilling
marriage
domain
crackdown
nimetz
dps
fati
owe
##list
##esa
##ingly
##think
unreg
semi
repressive
incap
protective
sib
redistrib
improves
legislator
peacefully
camb
##lessness
burns
ferr
migratory
complementary
maurit
contradictory
wanting
jadranka
unstable
ossetia
temporarily
aver
boc
bish
nd
nap
rod
umb
##ney
##fti
staged
##ete
##vency
##ava
statehood
approves
##lias
bulk
collapsed
understands
traders
weaker
weakened
protestors
contracting
abolishing
imbalance
tendency
minimal
incompatible
promptly
possess
reluctant
cinema
predominantly
apologise
dnev
79
96
aro
hither
soph
##zak
##inic
##ortive
forb
alarm
##owski
interfer
incon
plastic
upgrading
councils
##tenstein
guided
##ounds
valley
summar
successive
##risy
sittings
derived
##orney
matches
corporations
spectac
fortress
##drop
screen
reciprocal
veteran
biljana
frustration
discrep
dismantling
hypocrisy
fabric
pregnant
wolf
jewish
tuzla
counterproductive
bot
cel
anth
##state
paraly
##ials
##estyle
##ieval
amounted
invent
signatories
medieval
raz
blat
attorney
populated
phones
criticisms
portal
##gery
##arios
exchanging
writers
harmony
subsidy
forums
cataly
collectively
decisively
##ettes
persecuted
galile
inefficient
aggression
accomplished
bbc
imperialist
remuneration
interdepend
microfinance
demetris
hitherto
aer
jas
##sen
##fra
##atom
##asi
foref
unice
##aine
sav
##ticism
adults
consisting
##agasc
basin
defines
bars
militants
madagasc
excav
lowering
entrust
occurs
##lessly
prosecute
sepa
180
tune
remembered
musicians
utilisation
soren
earthquakes
rarely
installations
mortality
steadily
pornography
unicef
87
dora
vass
##cm
##bish
##west
##rets
haul
aged
importing
liech
##umes
recru
outline
timefra
overview
grey
buzek
businessman
drain
backdrop
metro
simsek
mandates
djok
epas
witnessing
mutil
dominant
intellectuals
vaccination
relocation
temperatures
malaysia
tajikistan
tsunami
galileo
liechtenstein
pity
raj
render
##oying
##mates
##just
proj
unification
unamb
##rained
sax
heated
prescription
##auf
swoboda
summits
latv
embr
arriving
speeding
expenditures
cooperative
eggs
motto
pretty
populist
hellenic
eighth
gabri
papadopoulos
91
bsp
gate
mah
uz
##esh
##arc
##asters
##olly
exag
sahar
##abe
##oking
##mitted
revive
shareholders
volcan
circle
blockade
deriv
curric
racan
gymn
ecosystem
ayhan
##missible
deregulation
cfsp
##endosje
volcanic
afore
##zh
##rea
##asic
reorgan
proving
##eted
##aking
shed
outd
##ressing
clearing
talib
supportive
triumph
judged
joins
declining
ethnically
reads
engaging
turnover
weakening
tunnel
allocating
exercised
srs
observatory
regrettably
scenarios
translate
munitions
monument
irrever
dimitri
polluter
divor
seminar
recruitment
kilometres
interoperability
frattini
forefront
saharan
aforementioned
taliban
breed
fp
james
kol
lor
md
upper
##ifor
##n1
##bak
##orious
rejects
stol
prescrib
underground
scul
quiet
##enekon
assisted
flour
undemocratic
calendar
hygi
lukic
apartment
walls
envisioned
persistent
naive
foreseen
borrowing
escalation
absten
ergenekon
tetovo
madagascar
gard
yan
zl
##rising
##muss
retention
##idis
iter
sem
cool
contra
demol
assert
subordin
instances
infection
barack
emil
erit
plea
finalise
objectively
generous
treating
denomin
celebrating
utter
virtue
catastrophic
sandzak
treasury
kidna
##mussen
4m
cav
fis
kick
ksf
pump
##eon
##kind
##anic
##sters
alia
##ada
sulejman
byp
chile
##astrich
plun
minsk
outright
uprising
undergoing
assumption
behave
violates
militar
centralised
distortions
northe
imposition
creditors
declaring
reint
patience
ratio
prioritise
purchases
condemns
fatal
unsatis
frequency
maastrich
motors
broadcasters
virtual
stopping
##roduction
eradicate
lagging
rasmussen
proclaimed
snsd
cocaine
ecolabel
maastricht
bam
cra
nin
nuts
pam
sda
inland
##oulias
isn
##ione
proxim
##cea
nep
shorter
samp
composed
crash
##weg
adopts
handover
reaches
prepares
feelings
delaying
edge
insistence
fulfils
optional
identical
unitary
geographic
wald
prohibition
pictures
validity
championships
rasim
humans
fragmented
prudent
fingerprin
alfred
ljubljana
kazakhstan
hond
pin
##inations
unav
unlaw
reserved
##odor
incurred
disin
mont
##oints
200m
periph
##entious
royal
formulated
equitable
brown
papoulias
separated
steady
djord
analysing
vulnerability
shipy
licens
bombings
settlements
##heres
multinationals
evolution
encountered
transplantation
parental
92
zar
##ipe
##cess
##onoun
##till
ina
andor
##otted
unear
atten
recre
secession
advancing
##ologically
homeland
audits
professions
deadly
reminder
appealed
exhibitions
conditionality
residential
girl
smoothly
selimaj
argentina
umbre
97
guch
hing
sli
##ipp
##kova
##enica
##aya
diet
append
terzic
feet
##liest
organization
supplier
10m
labels
prosecuted
writes
surveys
epa
kostov
petrov
passive
denounce
birds
cigarettes
shaping
scanners
outrageous
bargaining
surface
outdated
gucht
cord
dtp
hen
kall
##bar
##kin
bees
wearing
deval
##ucks
polo
sey
accusing
spur
##titative
communists
evil
immig
disputed
worthwhile
mistaken
celebration
pakistani
tolerated
curtail
fleets
disagreements
tendencies
contaminated
disruption
deposits
quantitative
unjustified
cant
dna
hox
lam
pd
ske
xen
##ih
##elic
##uates
##fur
##kos
##erately
##inska
##atar
bea
pric
pronoun
policing
##acked
situated
continents
busy
grid
retro
expectancy
supermark
obstruc
##bank
undec
predrag
speedy
rivers
##archy
casual
constituent
daul
ramadanovic
shelter
polluting
epidemic
manoeuvre
unconditional
multilingualism
engines
djokovic
latvian
hygiene
unsatisfactory
hondur
dying
ilic
lod
##hen
##with
##icit
ammun
boat
nowhere
provider
organic
herself
##legisl
euroscep
reduces
sheep
passes
closest
##redit
constructed
risky
reinfeld
journalism
##tozar
praising
popularity
volunteers
discretion
confiscated
eager
hikes
unambig
sculpt
unearth
umbrella
bild
bdp
fits
gian
kad
##bro
##hand
##jev
##entic
##arged
##outh
##itology
##idal
##ulent
residing
shal
##ourned
countless
mineral
ups
subur
balances
allowances
##phem
additionally
discusses
advise
instrumental
definitions
alien
feeding
subsidiary
##aware
secularism
echr
michel
calculated
shameful
mitigation
enforcing
tightening
manipulation
##balgs
incredible
genetically
piebalgs
cluster
sensitivity
reimbursement
bombs
ammunition
reinfeldt
cu
kro
ww
##bas
inac
##omed
strain
comitology
unused
##oca
agri
polar
seiz
adh
prestig
##umi
dire
compos
##load
marath
##ksic
overc
190
backb
campania
misuse
confirming
devise
accepts
constructively
bloody
proportionate
arabia
bitola
##bek
armenians
vetev
scoreboard
vlora
##itisation
segment
fuele
dimitrov
deplore
zeal
patterns
svetla
correlation
ingredients
oliver
colombia
incapable
mutilation
waldner
beauty
prestigious
fy
kl
riv
##iers
anat
##eck
alter
degrad
hab
unfor
shir
shocking
##estos
adam
colegisl
recurr
crude
##rescu
rohan
formulate
captain
blast
preval
revising
formerly
banka
qualitative
trees
referendums
awaited
decreasing
##burgh
contempt
bonuses
distinguish
enemy
gbp
encompass
unveiled
unusual
svetozar
ferrero
marathon
7m
93
cn
paving
sut
##tes
relying
##riyet
eurojust
##ianu
arte
invasion
themes
##inki
imminent
albert
rulings
thanked
expressly
simeon
nationwide
enjoying
buried
illicit
automob
appreciated
appointments
haitian
excluding
wales
ballots
laboratory
scholars
orphan
phrase
injustice
unregulated
backbone
degradation
ces
fool
kuk
mug
pione
rog
##sinki
##zz
##orge
andri
##itude
wholly
stere
##rig
##oured
monti
marty
marsh
overth
preference
protesting
twel
nationalists
medics
helsinki
heroin
harms
gashi
denies
subscrib
facilitated
codified
attacking
analysed
sanction
awarding
burgas
safely
montenegrins
departments
exhibit
##holder
icelandic
passion
extradited
arresting
scandalous
benchmark
deliberate
transnist
neutrality
dilem
neglect
confederation
continuously
jelena
mainstream
sidelines
catalyst
honduras
fyrom
pages
ros
sighted
##ljevic
##cal
##sic
##rit
##math
##ille
forever
asb
##alloc
amaz
##aped
outlines
issu
insul
discoura
channe
scourge
redef
##ranational
actress
mode
tense
renewables
appealing
withdrew
complained
couples
elementary
clarifying
window
fertil
honestly
pharmac
baby
touched
hurriyet
incomprehensible
ultranational
funeral
wilder
slogan
ocean
tranche
coexistence
expelled
appendix
6m
ari
bern
hate
jovan
kor
kamp
lama
sat
tin
##tar
##away
##urable
stuck
##otechn
##rimin
enp
truck
##agers
boom
aftermath
authentic
regulator
planes
evade
oppression
varied
erlis
supplying
50m
jews
exempl
retaining
vessel
nicolas
sympt
testify
veterans
incomplete
interconnection
intolerable
neglected
restaurant
distinguished
##chelles
##worthy
timeframe
seychelles
asbestos
wilderness
bh
cow
derv
drought
daughter
jon
torn
vuc
zv
##tv
##bted
##build
##tition
##ouch
##aca
neo
recital
countryside
assign
twin
discon
informing
##entials
loop
realising
childhood
easing
surge
ethics
farmer
laden
##atism
obsc
containers
ashraf
minded
##omsic
harmonious
kostelic
headscar
searching
##eroon
extradite
jeopardising
darfur
clubs
cameroon
accommodate
angry
hampered
derogation
wireless
stretch
cambod
pamuk
stereot
holl
ku
komsic
lou
mff
##len
##dog
##iljana
##lical
##agon
arisen
lamber
genital
cargo
buses
refund
germans
euratom
coordinator
ceo
runoff
##ierre
midst
musical
congratulating
professionalism
inspir
diversify
protocols
occupational
liable
1974
revolutionary
unequal
izmir
magnitude
printing
bogdanovic
separatist
chronic
ok
##losed
##cer
##vign
##aria
##asive
unaware
notorious
poles
##ips
discourage
advised
surgery
referenda
##play
tripol
combining
metal
indebted
desperate
greenland
##ilitary
tyres
congratulated
adjourned
safeguarded
dividing
panic
cleans
quart
quarters
mircea
soldier
recipients
tougher
correction
ordinated
lieut
clinical
decentralised
owing
fleeing
azores
fighters
exemplary
8m
89
cure
dies
wo
##pm
##bor
##tige
inso
##ouf
asym
##tinent
##umin
diyar
overl
disclos
format
confused
##rana
condole
studying
detection
quicker
##ylv
checking
spiritual
advertise
vacu
fiat
stores
convictions
accelerating
beliefs
beneficiary
corridors
paramilitary
uncontrolled
nonsense
immigrant
kroes
insofar
asymmet
tic
##light
##field
##ecker
##ional
eurovign
unha
##raining
##ighter
interl
plight
disbur
spheres
##agic
subcont
center
stir
192
##feu
privati
qualify
harvest
unfav
ukip
simic
penins
designation
petrol
##holes
buyers
painting
journeys
affirm
temperature
ridiculous
biofuels
diyarbak
vacuum
unhapp
blic
cia
pec
sorts
##ique
##var
##vation
##onest
##onian
staunch
europeana
shores
impressed
trucks
interaction
usage
sps
##atibility
overly
communa
esma
trail
approached
fluct
historically
acquiring
500m
fao
cattle
reiterating
watchdog
utilise
blueprint
perpetrated
narco
sticking
colonial
geared
seselj
prerogatives
bildt
vetevendosje
tripoli
quartet
lieutenant
peninsula
io
rud
xh
##night
##br
##yan
##maz
##head
theft
fores
prodi
sezer
202
abkh
finals
spare
##forward
beta
specify
##lija
installed
grade
personality
guarant
strategically
waves
evaluations
reminds
spiric
manufactured
forgetting
fraudulent
tito
halted
##anek
tanjug
rigorously
tenders
reinforcement
captured
deteriorating
machine
transplants
straightforward
rumours
inherent
bloggers
gauzes
unearthed
loopholes
abkhaz
750
mub
nen
rauf
##tible
##arak
##itan
prote
##olis
##acle
shake
imply
##odes
laure
##seless
##egovic
objects
earliest
activist
limaj
reviews
challenged
desperately
expectation
checked
slowdown
logging
tortured
catches
precedence
radically
privilege
databases
unjust
anxious
instructions
irreversible
anatol
94
fried
kam
lut
roc
##hed
##inje
dell
neuro
##chi
sef
seker
abduc
recourse
upset
clock
transylv
overf
discovery
rapp
este
##racted
favourite
generalised
revival
##atics
suffers
column
topol
penalised
biden
settling
apartments
tracking
recipient
fastest
utilised
exceeds
castle
##ezza
hesitate
derogations
intermediate
troubled
stagnation
hike
##utaire
mauritania
fp7
stolen
condoleezza
communautaire
filling
hards
kris
sven
##hir
##wa
##inen
##reira
andy
##icts
realloc
##ople
prestige
interc
arrog
##avljevic
insult
anymore
rober
esm
scored
allowance
infant
inflic
infections
pointless
backwards
handic
geost
precious
selective
originating
provoked
observing
withdrawing
magist
holy
transforming
philipp
literary
envisage
hurt
arbitration
echoed
boxes
mortg
dollar
manifest
confidentiality
nutrition
aggrav
exagger
##building
eurovignette
unfavourable
mubarak
ble
dit
mite
tree
##iological
##eries
##anin
##arian
##roche
conqu
##tsburgh
resh
##uccess
##tee
##abouts
recalled
disband
##ghd
outcomes
wellbe
mayoral
raids
balancing
employing
emir
ideals
studied
immun
stops
ivana
icg
competencies
##naire
##roads
layer
excessively
unsuccess
ferreira
licence
prohibit
motivation
venues
interpreters
overseas
pittsburgh
kraj
cigarette
undersc
hurdle
spectacular
entrusted
derivatives
fingerprints
unavoid
kallas
diyarbakir
abkhazia
rapproche
topolanek
wellbeing
rapprochement
ipa
joy
lope
vec
##cin
##orable
##ecret
reap
##aint
atal
plag
accred
span
intensity
climb
kosumi
adoptions
quoting
questionnaire
boskovski
dealings
bankers
##atero
excise
holdings
launches
crucially
circles
negatively
deliveries
distributors
##apping
burning
lifestyle
ljiljana
restructure
dignified
corrective
tibetans
unreason
endanger
gangs
wisner
alignment
undersecret
dissemin
brigade
zapatero
draftsman
gabriel
auc
ced
cite
edi
lul
maps
tb
zem
##rator
##mab
##inau
##isinau
stored
##etovic
rests
##solete
##oded
newest
decree
obsolete
whereabouts
confined
##working
##ructive
norweg
stars
##uga
##iku
##tism
smallest
pressed
ruecker
unfounded
musc
donated
festivals
hugely
##making
watched
windows
destiny
wealthy
attaches
dedication
embarr
retailers
recovering
hydropower
conferred
tactics
fantastic
unlawful
bun
gon
hind
lots
pess
pierre
wines
##hs
##gering
##fold
##itations
ford
shk
##ticultural
charity
liu
203
cancel
##ometer
pek
##ford
overd
teen
brc
ballet
guards
carl
carers
herman
refinery
108
civilised
offenders
forwarding
trio
rupel
hunting
conflicting
ahmad
papua
##ifies
landmark
steiner
registering
breaks
graduates
sounds
briefed
logistics
admittedly
reactor
surveyed
drama
licenses
dissol
surrounded
racial
defeating
vigorously
devastated
prevailing
comprised
beaten
stalin
baghd
overlooked
dollars
dalai
gordon
kermab
pupils
lazarova
bamir
disclosure
sekerinska
kermabon
dalli
qatar
##linary
##ser
##points
##itary
##asphem
rethink
chisinau
##este
struga
##ackere
kosov
##inej
##arevic
subcom
##itely
improper
milen
blasphem
employer
operative
qualification
fla
junta
credentials
entirety
160
armies
doubled
tempt
supervise
routine
mounting
disadvantages
sudanese
garner
smokers
landsl
comprising
volunteering
erupted
hurdles
antibiotics
fischer
unhappy
roberts
lopez
norwegian
subcommit
gm
gren
##cic
##bl
##begovic
##gb
stun
stays
alp
notwith
exile
reside
impover
adnan
##ieu
incoming
marc
intra
cru
notification
invo
rooms
##evski
cohn
lowered
delta
170
volc
experiment
paths
blacklist
290
unpaid
survived
muam
attendance
philip
mentality
seasonal
daianu
machines
confrontation
workshops
acquitted
interfering
uzbek
attentive
unforese
automobile
inspiration
undersecretary
brcko
notwithstanding
bendit
kuc
mism
rises
sul
tah
##iad
##rent
toky
##rel
##leum
##stal
##acity
meg
cher
allied
compatibility
mood
outlining
laz
cler
kosova
directions
##ounding
##iva
objection
handing
trips
metre
liberalising
denial
complies
penalise
weakest
stein
consultative
emergencies
prompting
licences
interpretations
tragedies
distinct
suspicious
installation
exacerbate
kovac
trajkov
emotional
repatriation
pockets
certificates
stambol
djordjevic
blasphemy
hier
mount
ox
sister
##erting
##asp
##asy
ster
stems
##people
##tices
coburg
finishing
recovered
ard
##ache
crop
desc
matthe
191
owns
viewpoint
contributor
revis
assistants
posters
hearts
liberalise
destructive
osman
distribute
tonne
prioritis
1984
postponing
indictments
cancellation
denounced
totalitarianism
petroleum
mihaj
sleep
beekeeping
saxe
habits
overthrow
transnistria
tiny
cleansing
pessim
dg
dor
kel
piv
##cz
##covic
##rine
##any
inmates
tomb
##room
deeds
notable
assault
##olli
longstanding
##sson
emigration
popovic
offset
116
unfold
radiation
multicultural
imposes
campaigning
renegoti
repeal
patro
drink
##books
characteristic
derail
1970s
endorsement
updating
dismissal
illustrates
songs
wrap
upholding
encounter
inauguration
bribery
levy
dissemination
workshop
sweeping
resolutely
lavrov
sophistic
ultranationalist
bacter
gos
kalf
ld
zd
##pc
##bles
##era
##orated
##arn
##icks
alph
##sely
imper
##ode
expires
marian
cloning
discont
longest
employs
ahmeti
cohesive
trafficked
select
origins
existent
uncovered
srb
edf
mosques
vacation
electronics
tanks
reinforces
koha
stoj
explosive
explosives
rationale
displayed
profoundly
dilig
paradig
destabilise
marriages
inspectors
shoot
elaborate
conformity
thirty
anonymous
deutsche
zealand
twelve
cambodia
stereotyp
robertson
erog
hys
tu
tec
##ao
##inter
##inity
##rim
##rians
##ritical
##ules
##utory
##tinc
unques
pard
willia
##occ
##aka
leon
spots
marin
upgraded
##assos
quest
legislate
anna
##sky
handball
grids
youngest
mora
mirol
hostil
##regation
supervising
holistic
##anovac
chains
400m
intensively
warsaw
guns
kaletovic
gjorge
worship
wisdom
incredibly
georgieva
comfortable
helicopters
appliances
indifferent
blatant
gymnas
subcommittee
volcano
550
bou
lord
oda
ped
##tal
##net
##din
thrust
##isi
##roll
##roach
beth
weber
##otal
device
unoff
trich
##recy
cloud
roaming
signalled
institutes
initiating
furn
transpose
severity
phasing
charles
cave
##cture
indefin
ilir
distortion
northwest
repeating
distributing
adjusted
graves
vaclav
holder
fatos
renational
normalisation
telecoms
professors
##keri
awaits
commemorate
conversation
discrepancies
projections
utterly
nepal
sutanovac
narcotics
sefcovic
unavoidable
miroljub
dread
jat
lud
nick
tud
tap
tfeu
vond
##lore
##ea
##ek
##ye
##uj
##jel
thr
##enz
##enerative
reacting
##urate
sava
polled
strand
exporter
whoever
secrecy
outlets
##lude
centred
currencies
biom
dealers
123
115
indicative
allocations
grab
promotional
broadcaster
profitability
dynamics
ramush
exceeding
babies
registry
supplemented
bolster
illustration
scepticism
dictatorships
munich
terminal
overwhelmingly
predictable
affirmed
bedrana
samard
izet
##hardt
reversed
swimming
prolonged
kenya
ninth
ioan
fake
fru
jovic
kac
kri
kesh
nas
nace
nazi
rent
rand
srd
sasa
##ii
##ril
##gol
##vised
todor
asc
##essed
##etal
##och
importers
butter
incidence
demarc
basha
measurable
brun
trap
crew
2018
biased
schw
blu
jobless
opponent
profiling
advent
potoc
careers
moments
preparedness
proceeding
justifies
complaining
radicals
occupying
halting
uncertainties
museums
honesty
prohibits
supposedly
##qiri
dubious
calculations
editorial
reluctance
commendable
petrovic
enemies
mainstreaming
olive
gordana
flawed
tenth
orchestra
gnss
entrepreneurial
pyram
peripheral
marshall
dilemma
insulting
eroglu
unquestion
vondra
650
bc
cater
dir
ig
mackere
rav
rif
zu
zel
##iat
##iment
##nica
##zd
theore
##tilla
##inness
sus
enact
##aks
commissioned
##uma
expired
clan
relies
solvency
soul
talent
progressing
valued
listing
airways
juncture
homeless
claude
delegates
conducive
responds
facilitates
authorising
beres
chambers
evidently
devising
panels
horn
holkeri
unsc
rigid
incorporating
##umbling
premium
assumes
literally
literacy
eradicating
hypo
##stream
varying
vasil
inconsistent
administered
redistribution
divorce
proximity
mugabe
privatise
mitev
kalfin
bluet
mackerel
bric
creat
gil
grac
kath
mh
nes
##laku
##gle
##fax
##kia
thrac
beer
forwards
resorts
consular
opted
posting
##eline
##tening
instig
signatory
alber
empow
raid
giorg
contributors
##tised
modifications
consumed
simpson
##ogna
##icken
dialogues
radovanovic
provoke
##janin
unden
diverg
coupled
academics
naval
embark
surrendered
venice
hamper
hesit
ghana
diminish
homosexuality
nicholas
unequivocally
fronti
ambigu
cosmetic
razvan
trichet
cv
dci
hits
ias
kin
kiev
krem
pv
picked
rall
tip
tav
tech
##ius
##iries
##sy
##oh
##mila
##facts
##vals
##jes
##titive
##itz
stakes
##ppling
prince
chees
orhan
20m
coin
presiding
##ghe
spill
moody
betray
ardi
perceptions
instruction
wheat
distrust
preventative
crossed
prosecuting
chiefs
karolos
waited
identifies
landf
adjourn
measurement
dropping
##meta
holoca
logistic
afforded
reveals
pulaj
recalls
joseph
districts
publishers
comprises
rolling
enthusiastic
lankan
##atoes
inherited
mitchell
ultra
exhausted
maximise
underestimate
embrace
licensing
shalit
unreasonable
pivotal
discontent
samardzic
bluetongue
holocaust
450
aak
bands
cable
fu
g8
rab
ramp
sz
sir
wik
##cd
##bach
##esy
##icro
##ecp
##iliated
ist
isaf
rever
##olu
meters
enacted
regrets
abilities
peer
sporting
mario
##anca
proportions
pertain
pertinent
principally
##angle
backward
costa
grasp
phases
cement
broaden
186
identities
enlarged
authorise
celebrates
holbro
##develop
firef
engineers
##ightened
deteriorated
bologna
horizon
surpass
interconnections
fibres
tailored
rankings
wrestling
arose
cavic
unambiguous
kosovars
bac
faj
kot
mouth
tase
vil
vid
##lor
##jo
##anational
forge
wholes
stones
supr
agro
##anted
likes
pla
noon
noble
verified
develops
underdevelop
lax
roof
powell
locals
emig
strengths
educate
cairo
##jek
topical
constructing
limitation
vicious
distort
totalling
obliges
recommending
readers
detected
pahor
karab
##limited
codes
replaces
merch
privatised
##aturk
contractors
contracted
briefing
optimal
bloom
surviv
endorses
birthday
preceded
navy
stefanovic
dossiers
sergei
suspicions
sacrifices
deposit
anxiety
cameras
livelihoods
supervisors
mahm
eritrea
channelled
protein
zemun
sophisticated
stereotypes
supranational
dz
fare
hors
ka
tier
tighter
xia
##lared
##sr
##fts
##inces
##stro
##terror
withhold
unlimited
##rap
byty
##child
##ectric
replies
coasts
##astra
abund
accuse
accounted
spaces
##auer
boge
cristian
stif
treatments
gift
commonly
courtesy
societal
flora
euras
junior
coordinators
emphatically
simon
auditing
##took
arrives
undes
christianity
punishing
tony
protested
horrific
proportional
classic
widening
labelled
vesna
##polis
observance
embarked
eea
barbaric
absorb
conceal
grips
audiences
throwing
unequivocal
hillary
undeclared
intercultural
overdue
matthew
paradigm
holbrooke
aven
castro
dry
eating
kids
mend
olig
tassos
uran
von
##tr
##nock
##hin
##hler
##wood
anders
alger
defer
##rak
agend
shale
leap
chave
seecp
##ller
incom
married
##aga
appointing
carte
##tisti
##antek
114
transparently
statue
finalising
pole
volumes
burned
fauna
battisti
coastline
enormously
300m
physically
rocket
aston
snap
disappearance
portfolios
hypocritical
fixing
mathieu
provocation
tamil
invalid
casualties
holland
pekusic
izetbegovic
agendas
chavez
bub
gmos
h5
hack
kit
ni
odi
sands
##cul
##fil
##kok
##esc
##inovic
beqiri
##oljub
unle
commended
counted
##iescu
disgu
spa
contentious
inviting
overt
##ollah
warrants
drazen
##icevic
104
modify
ruin
ert
iliescu
##oya
answering
coalitions
lawsuit
provinces
deepest
recording
standardised
##ported
reconf
richer
concentrating
rebel
buyer
intervened
advancement
streamlining
advisable
renovated
bonus
destabilisation
##falls
confronting
nanotechn
troubles
loved
nagoya
ambiguous
deportation
dissatisfaction
interdependence
transylvania
misman
biomass
albertini
cheese
uranium
ax
bic
cern
covic
emit
fusion
pian
##wind
##erated
##atus
##iso
tower
##omater
##ilmaz
forged
##idla
##ths
alak
##adi
ataturk
mini
spidla
consec
workable
indisc
indones
arsen
perv
assent
mature
caring
##ivable
viewing
bosnians
reasonably
modification
practise
reformist
varies
hunt
oslo
mergers
associates
shipments
sadd
feedback
titles
collaborate
johan
vesel
revolutions
streamline
wondering
rigour
dynamism
miller
catching
calculation
moroccan
crowds
evolving
andreas
drastically
intermediaries
nanomater
differentiated
cameron
reopening
beaches
foreseeable
supervisor
bypass
unsuccessful
unofficial
srdjan
kremlin
odihr
cov
goll
kan
kong
kap
necd
ozone
yilmaz
zan
zast
##iop
##ronom
##uously
##fast
wear
##petitive
##adar
print
trick
indign
obrad
esp
##lihood
scor
##itement
desert
load
loose
environments
taxi
slim
libr
unifying
##jell
radmila
detect
misery
generates
paves
karic
penet
280
commanders
riot
burn
rebu
belonged
escaped
##nisch
scenes
ordinate
clinic
mercy
cashman
interconnected
nomine
##ktor
volatile
photographs
blank
sentiment
##schror
fatih
shipyards
kampschror
philippines
adjournment
consecutive
gollnisch
necdet
zastava
jah
laugh
osi
sne
tall
vain
##iates
##tances
##gling
anad
##rels
isa
fore
shakes
shoulders
reck
motives
verge
likelihood
##ogenic
soccer
overtur
boards
crown
##mese
disclosed
##gang
##obo
budge
guest
guilt
establishments
beforehand
weee
headlines
skender
colour
lifetime
##onstantin
criticises
30m
bright
athle
losers
influences
influencing
modernised
drc
devised
burmese
reminding
shipbuilding
slowed
fifa
tanja
abandoning
premiere
alexandroup
accurately
prerequisites
tightened
pnl
classification
exhaus
interrupted
bags
folklore
coffee
conspir
uneven
wolfgang
paralys
prescribed
northeast
xenophobia
raufoglu
unforeseen
zdrav
hyseni
demarcation
logistical
horses
alakbar
indiscrimin
bg
ek
gel
heral
vested
wounds
##tory
##gone
##2m
##wi
##enable
##anica
##eder
##isers
##asz
beq
##illi
resil
amster
##ghazi
compiled
##log
##amen
##electric
oversh
thematic
endless
formulation
bio
schro
slots
109
specifications
headings
happiness
militant
retraining
metals
crossroads
greener
prosper
subsidised
epis
proceeds
hostile
hitting
horr
flooded
versa
mountainous
envisages
exchanged
innocence
benghazi
svil
csdp
echoing
paved
segments
remittances
mathem
georgievski
fronts
misunderstanding
excavations
breeding
denominator
issuance
##inejad
temptation
schwab
##terrorism
h5n1
alexandroupolis
amsterdam
bened
egn
lunch
oomen
##rill
##nak
##jet
thri
thorn
inven
infer
##leas
##ulum
##owed
partis
enver
leinen
orange
adher
trilateral
lip
limb
accede
marred
##epol
##eman
elites
humane
speculate
milic
suppose
activated
downsi
constitutions
qualities
reformists
ruij
bordering
lesser
metoh
packaging
##laves
nets
compromised
midnight
documented
132
ratifying
flotilla
missiles
commented
struggles
classical
intervening
standstill
endorsing
massacres
darko
cardi
vigorous
advisers
certified
##offs
catastrophes
##criptions
relocations
conceived
segregation
disturb
owed
kragu
rewarded
uncompetitive
cultivation
juven
dnevnik
pricing
##jevac
rivals
nenad
geostrate
vecern
baghdad
fajon
xiaobo
zannier
obradovic
anadolu
ruijten
a1
costing
iae
kat
lin
lying
ost
pon
rend
uigh
vod
xvi
##mid
##flu
##enik
##orus
##ouros
reign
forens
##oline
aligned
##usions
##imi
shocks
sap
lever
wasn
incur
disb
yearly
##lose
nokia
manages
##agement
firing
teresa
invitations
kosanovic
relieve
preach
publications
factual
stephen
cyb
headline
offs
fundamentalism
enclaves
cafe
##jeka
junc
statutory
erhard
networking
deterrent
athlete
uncon
historians
rijeka
petrescu
inspire
stayed
attraction
accompany
destined
meaningless
convene
ciolos
ordinating
unreported
telecommunication
triple
australian
remedies
irrele
vegetable
definitively
lucrative
repayment
sentiments
wheeled
lesb
canton
hoxha
woes
esteem
exaggerated
ditore
shkod
##tinction
bytyci
benedict
egnos
metohija
kragujevac
gendar
hired
lyn
mall
mund
rts
tig
uc
zaman
##deg
##furt
thai
onwards
##thane
stup
comor
degrading
shala
shaken
implements
termed
bother
insight
feith
disclose
brink
empower
defender
description
greed
setback
blaming
sheet
combated
introductory
radmanovic
misused
portray
textbooks
schooling
debtors
##efa
50th
uncover
djuro
breakaway
petkovic
reiterates
1986
tolerant
hole
disagrees
antonela
stipulate
koh
customer
vlas
dragging
eurobar
mitigating
earnings
frustrated
dinar
fuelled
conveyed
reimbursed
epidem
queen
rtk
turbulent
recreational
neurodeg
columnist
flagr
ldcs
nanomaterials
neurodegenerative
bust
gur
mia
omission
pc
useless
vinc
yild
zh
##tb
##dar
##kay
##kers
##enza
inad
##isible
##rep
##enter
##ictions
proeski
stub
##uttil
exerted
byzan
restitution
hasan
impede
seism
seals
consume
##eption
undertook
insurg
trapped
standpoint
busuttil
negotiable
blaz
deple
viktor
passy
mete
applicant
poets
oblige
irr
antiqu
lively
prisoner
boosted
eleven
breakdown
illusion
lukovic
admitting
splend
dreams
wallis
150m
faithful
racist
frankfurt
illustrate
hesitation
insecure
deplorable
shifting
leaked
etat
anchor
koci
abstentions
zlatko
pronounced
dervis
krajina
lulling
ahmadinejad
uzbekistan
thracian
libraries
geostrategic
eurobarometer
dic
eri
fest
ga
gcc
kash
naming
sre
tz
##evic
##nical
##uh
##vy
##zani
##erable
##alis
##rey
##iture
##icic
##ilation
bell
##step
##otage
##cevski
suited
suits
##unovic
extinction
leve
##andro
##uded
inclined
dogs
expose
##lick
##acek
reliance
##tened
insol
takeover
nationalities
quit
guy
guer
favouring
awful
borislav
viewers
expressions
consuming
researcher
125
caf
colony
ceme
compromising
karas
repealing
scientist
mindful
uncons
steep
elekt
registers
##shed
archives
ignores
mistrust
richest
injury
1987
cleaning
dominate
enhancement
dissidents
ivanic
bloodshed
commemoration
contradictions
coincidence
populism
bribes
shifts
jakup
negligence
curriculum
contraven
colegislator
guarantor
atalanta
dreadful
ascertain
byzantine
cem
evic
hans
ioc
mati
nms
ora
tft
yves
##sm
##njak
##uits
thom
theodor
tow
##ouble
##thia
##sever
##ulic
deaf
unpr
commenting
leake
##rome
##anski
miners
needless
policeman
mankind
arb
underway
eliz
protracted
assa
syd
synd
##onda
subj
redouble
defends
bioc
standby
estonian
depression
baran
emcd
transporting
receip
popovski
forcefully
closures
skill
entren
liberalised
influenza
denkt
delivers
240
##rido
silv
constanta
graduate
geographically
versions
breached
physic
jeopardised
recalling
extensively
garrido
weightlif
##alienable
hindering
scrap
printed
disbursement
2030
tftp
leakey
emcdda
kpc
lust
uefa
##sov
##oon
##western
##tifying
antim
##omon
forc
stumbling
##rigue
delete
##irs
parade
resur
##andouros
commissions
abusive
plates
intact
mann
##rected
undergone
bashir
##inka
farage
affiliation
maker
inflex
locate
handful
cynic
sustaining
geb
pleaded
radar
##ukov
simitis
25m
prosecutions
suspending
homework
tenure
audited
wah
israelis
burdened
hungry
remembering
egg
seemingly
1980
reconciling
magic
occurrence
geography
unfairly
apparatus
##ilingual
corrected
vlach
venue
prevailed
sacrificed
1967
##rafts
disgraceful
comparatively
fascist
pandemic
diamandouros
summarise
plunged
artefacts
bernard
immune
iaea
dabil
fou
fights
gol
grip
hanging
mud
ner
rit
tus
wreat
zenica
##leration
##kas
##kol
##zana
##jen
##jar
##inqu
tose
forty
##sey
##teries
##rium
withstand
hahn
unsp
unhe
agent
leh
##ticals
adm
intergroup
##ansa
pel
compatri
prizes
insign
marketplace
highways
setbacks
##racks
evange
restart
reviving
phased
civilisations
exciting
provisionally
distorted
radiological
##ovei
brian
selecting
emerges
188
generic
salv
volley
czechs
embod
##hai
mixt
honouring
diversified
unpro
luko
occupy
winds
fifty
fifteen
doctrine
squad
pulled
brokered
occasionally
motorway
pharmaceuticals
unbel
arbitr
disproportionately
lingering
cecilia
weighed
evacuated
apprehended
jarinje
lyon
turbulence
diesel
rocen
accreditation
milenkovic
stranded
indonesia
overshadow
juncker
dabilis
9m
hil
hang
mt
qim
rw
swor
vend
##pas
##uating
##mare
##6m
inalienable
toy
##ilib
##thal
alumin
counties
shkul
hasty
lefti
coerc
##fications
recipe
consulate
consci
marco
intending
crush
conten
underlining
##ernand
solomon
nationalistic
lawmaker
cents
esdp
album
bull
miles
milanovic
milutin
powder
realism
suppression
yourselves
slugg
emu
##alya
shell
ruins
skin
clothes
poly
entrance
301
travels
bidder
trop
obstruction
defendant
macovei
cereals
interpol
optimum
dictated
dismay
streamlined
progressively
utilities
multilateralism
scrutinise
cycles
rockets
unblock
astronom
bonn
volunteer
diagnosed
applauded
dictatorial
provocative
cosmetics
compliant
udf
sibenik
anthem
hinges
www
laureate
hardship
indefinitely
kriv
nesovski
karabakh
rebuilt
adherence
irrelevant
gebhardt
volleyball
unbeliev
qimonda
sworn
shkullaku
sluggish
aj
glo
graph
kun
kps
kool
nad
paz
ride
sore
till
wort
xyn
##rats
##afe
##mers
##fa
##onic
##oure
##stones
exerting
##usz
alliances
reporter
plav
##iped
shouldn
rectify
disor
##ghreb
##agbo
notified
outlaw
persever
##ricted
continual
##athy
carlos
schmid
avaz
##ikov
directory
emigrants
transposing
severin
activate
trim
suffice
swept
critically
announces
gasoline
vicinity
counterterrorism
##ashing
protectorate
138
auto
frigh
feared
##berger
malt
succeeds
contractor
honours
compensated
branislav
continental
searches
memories
premier
pula
extraordinarily
reassess
culmin
ineffici
fitch
deliberations
exacerbating
fortune
gyori
skiing
pretend
scottish
upheav
gbagbo
conversations
helicopter
overseeing
vassili
adhered
prevalent
symptoms
louis
paintings
muammar
stambolic
gymnastics
furniture
##iatric
gilad
gracanica
##icrob
mismanagement
stupid
splendid
unpred
antimicrob
lukoil
contention
xynthia
dv
eide
genc
mim
pair
puz
vise
##lated
##tas
##yev
##overs
##otism
##hu
##vac
##xts
therap
##erp
##tie
##rooms
##ilov
##unished
impair
heed
##ourcing
adult
wouldn
spr
##forth
##eli
##weight
romano
deserved
visual
carcin
##icek
slam
emas
succession
harness
flock
apology
packed
prospective
auditor
coping
declares
convoy
embez
##lamation
40m
believing
wrongly
wrongdo
arranged
arguably
appearing
layoffs
unpunished
disappro
curtain
typically
maghreb
approximation
slightest
krs
ltte
reassured
categorically
galic
efsa
thresholds
sponsors
adversely
antwer
laboratories
artificially
disregarded
bowis
battles
oceans
dissatisfied
supermarkets
random
undeniable
undesir
exhaustive
svilanovic
fouere
wortmann
embezz
antwerp
cd
dac
dmit
dwind
fjell
ghe
kand
mam
mourn
om
tant
tie
yout
##vin
##word
##itter
##ador
##etto
nez
parks
##opes
enqu
counsel
##aked
imped
chat
chechn
sew
dogan
compound
indul
laos
##achim
electing
securitate
##assoure
banner
budva
raf
confusing
evenings
greeted
carn
##raction
##ovica
grows
deported
equilib
easter
collateral
##asha
returnees
greening
tyco
oscar
landing
sharia
steer
hostages
merger
privatisations
ignor
##oulou
logo
complicity
##orno
unsafe
##imerini
hydroelectric
unrestricted
contradicts
noticeable
predictability
evolve
destabilising
prudential
simultaneous
reconsid
diminished
shaped
slogans
reopen
knock
revitalise
breathe
accumulated
tatl
bishop
reorganisation
lamassoure
ticau
plagued
auction
##occup
pyramid
incompet
flagrant
cafes
thomas
vassiliou
visegrad
fjellner
youtube
chechnya
220
bis
bone
dick
dha
daci
fiction
fernand
joc
mour
ron
sque
vatic
zeri
##late
##sfeld
##pan
##bilities
##bollah
##oz
##haj
thin
##orily
anagn
##ecks
##ectivity
##vetan
alina
alkal
##ulescu
##osity
commence
wasting
coins
##abeth
spends
marie
underw
client
relie
##parable
energe
evolved
buffer
spell
vib
factions
slated
letting
constituted
##rupulous
triv
poison
ethiop
criminality
paed
tyre
patten
##janovski
troop
elev
temple
worded
determines
cereal
optimise
advantageous
joachim
interviews
convened
nightmare
henceforth
spectators
unnecessarily
screened
spark
accuracy
persuaded
predicts
rumsfeld
terminals
pavkovic
hampering
lobbies
owes
surpluses
domination
mitre
lucky
eruption
nagorno
dnevni
subordinate
militarisation
fluctuations
reshuff
descend
mihajlovic
kathimerini
disbursed
shkodra
mundus
unpredict
puzz
undesirable
vatican
anagnost
850
cuk
dum
hong
kas
lapsed
nur
ross
saint
##cia
##table
##nia
##ders
##aic
##brid
##ois
##oth
##ojevic
##vable
##7m
##anes
tolls
##alom
##ilep
##ilitar
##riga
##osti
hav
resemb
##gel
trillion
cook
crunch
manual
aren
overarch
preoccup
##iously
mediated
couldn
ordering
defam
defense
taleski
competed
followers
##mitt
blago
barracks
summon
downward
surjan
achieves
assesses
poised
aspire
cetin
readily
avoidance
donald
ashamed
repetition
intensifying
dimas
steven
experimental
##izel
staffing
stakeholder
stockp
drouts
sanche
usefulness
derive
sufferers
ferry
incorporates
resistant
kyi
prohibiting
aspiration
ptk
motorways
cyclical
verdicts
kurti
boycotted
reaffirms
jurisdictions
illustrated
vowing
fortunate
veles
distinctive
abandonment
manipulated
treasures
dismantle
spotlight
wisely
shifted
misunderstand
aerop
semif
kuwa
dissolution
alpine
patrols
wholesale
##children
algeria
covenant
beqaj
comoros
overarching
droutsas
sanchez
dess
dust
kom
lgb
mild
nist
rol
tag
za
zuk
##iations
##lave
##tly
##auses
##oi
##gaz
anal
ismail
##sein
##terme
suu
shantek
leterme
##mel
prespa
fined
spo
consens
moham
belt
verbal
transmitted
boasts
discards
differs
##ilda
stark
slj
showc
educating
downplay
##phy
failings
participant
121
uniting
retrial
explored
lacked
ceauses
capitalise
##iotis
iranians
chairing
superflu
comprehensible
raped
mihai
archbish
egyptians
slower
footage
diversifying
commentator
complications
unpop
virgin
announcements
strained
acceleration
corresponds
begging
checkpoint
cheapest
disappearing
sufficiency
motivate
architects
vlatko
calculating
nominate
gjiro
pleasant
ukrainians
comprise
csr
disruptions
endeavours
treasure
perceive
thromb
pooling
dalm
kilometre
enriched
illnesses
certificate
fiercely
erosion
assertion
prayer
legendary
forbidden
##iforum
retrosp
recurring
jonilda
handicaps
mortgage
disbanded
kuci
tokyo
diligence
pertaining
conspiracy
unconstitutional
tatlises
mourning
ceausescu
superfluous
gjirok
ccc
cepol
cicek
ets
fold
gni
kuman
naf
pork
ward
yas
##div
##giu
##function
##3m
##eric
##anou
topp
##icacy
##asov
##ilic
##ols
congol
##ull
##igur
polt
allotted
##iei
pliva
##amount
motive
invites
teleg
mediate
brands
formalities
scoring
redi
cariforum
spear
safest
reasoning
##inescu
fundamentalist
focal
variable
distress
traded
misko
litre
tyran
loses
subsistence
domestically
superfic
tired
hyd
reconstruc
redundancy
dictate
shadows
joe
miracle
vukcevic
straw
besa
krst
touches
garriga
contested
homog
vuko
venizel
cornerstones
velchev
odd
rushed
diminishing
mcgu
melt
fibre
deleted
pocket
scarcely
curricula
samples
zarko
seizure
composer
cesare
andrija
refunds
inflicted
tahiri
hierarchy
underdeveloped
survivors
resilience
stubborn
denktash
wahhab
ritual
wreath
tantamount
trivial
archbishop
thrombin
congolese
venizelos
bath
bilingual
eric
jag
lighting
matic
mock
miod
rings
sot
xin
zadar
##rc
##bug
##houses
##gural
##ville
##inn
anc
topped
##leva
stuff
shore
lean
chir
seoul
interreg
abusing
soaring
importation
##agne
upris
policymakers
twitter
discard
debut
enduring
bullets
scho
maked
suppress
earning
valenc
##ikovic
106
grace
cynical
headway
##prianou
qualifying
unify
varna
jankul
exploring
totalled
##lava
acropolis
189
veld
taste
complac
intensification
tackles
##factorily
superior
chaotic
embrac
comprehensively
fearing
obstruct
trusted
spiral
olympiad
rift
italians
drown
flowers
catania
complicate
curbing
resignations
disagreed
punishments
straits
liabilities
walked
kyprianou
reactionary
aspiring
nicol
tobin
boycot
clark
relocating
inaugural
coincide
seaside
emotions
stavrak
reopened
inconsistencies
commemorating
anonymity
invaluable
flourish
disintegr
lodged
cnn
magistrates
impoverished
bacteria
srbija
renationalisation
dirty
##isoara
forensic
tigers
djurovic
sydney
lustration
tropical
equilibrium
unpredictable
lgbt
consensual
sljiv
unpopular
kumanovo
miodrag
uprisings
aung
fic
gual
hs
hrant
jul
kouch
kicks
lun
nam
rus
sant
uf
wary
zog
##jovic
threw
##tieri
##lem
##mentary
eurogroup
##owing
##uni
shah
##uca
##ureanu
reproduction
canary
##ishment
##sius
##apic
##apore
##acking
kosovar
assim
directing
publicity
crews
confine
guess
estre
corners
locked
employability
slip
slalom
constantin
advising
keys
singapore
colin
15m
janica
topalli
147
communicated
136
laros
dimitar
waterways
groundwork
authorisations
historian
allevia
succeeding
arche
60th
abstaining
painter
cleaner
explanatory
tannock
residual
boundary
discriminate
backgrounds
smuggled
unreserved
pavle
yields
antalya
magnific
scrapping
seminars
flaws
florenz
breath
sibiu
abstention
obstructing
overcrow
##calan
revisit
alpha
leonard
suscep
hesitant
pvv
rallies
eurasian
osijek
overturned
meteor
sreten
disorder
gheor
vibrant
anagnostopoulos
aeroplan
mcguinness
gualtieri
kouchner
alleviating
ase
dich
dams
emin
jandro
jansa
mate
nurt
ov
ocalan
pets
##ck
##sim
##nings
##utives
##oje
##ories
##attered
##oui
##urer
##ston
##tinos
unans
meal
##andan
aller
replied
presently
plass
##anska
##ancanin
appra
efficacy
prim
##asevic
elena
productions
specifying
endured
gifts
businesspeople
depic
remainder
behav
yours
competitions
112
collections
externally
250m
##monic
organisms
papadem
mandated
documentaries
damir
reins
osama
patric
embed
satisfactorily
executives
scientifically
borissov
60m
grain
hyster
microc
villagers
cabotage
fatalities
admits
storms
fertile
##ractors
acknowledgement
rhy
pilots
culpr
azerbaijani
pluralistic
bottlen
ibar
cathy
prejudices
dinner
relaxed
underestimated
apprehend
zapata
nedj
yanukov
supermarket
kadare
foresees
kristina
arrogance
moratinos
ludford
indignation
leftist
wrongdoing
ccctb
spearhead
sljivancanin
estrela
larosiere
jandrokovic
papademos
eid
eps
gps
iu
jet
jub
jih
lights
sed
sights
tends
vlah
##liness
##run
##po
##box
##upp
##gureanu
##felt
##zbollah
##inating
##isons
##alina
revel
rewards
##urers
##lywood
eupm
stag
##ullah
ungureanu
##ppers
resorting
##cha
hezbollah
##ouring
choler
expire
governors
possel
cluj
relinqu
overrid
proclamation
bob
basque
##urring
formulating
treats
guill
##incial
corb
progressed
succumb
practised
122
forceful
triangle
judging
poz
delors
175
salt
waive
circulating
provincial
stabilised
illiter
masters
footprint
heartfelt
christos
robber
##aeus
mufti
excludes
deduc
philhar
piraeus
engineer
advisor
conscrip
anticipation
barbu
tsvetan
brutality
shutting
reservation
disparity
endangering
predictions
culturally
marginalisation
jailed
bribe
predecessors
impartiality
melting
##worthiness
anchored
loyalty
fighter
coffers
rodrigue
metropol
mdg
cooling
headscarf
headscarves
anatolian
william
giorgos
farewell
budgeting
arbitrarily
mitreva
gjirokastra
makedon
nedjeljko
iuu
cholera
posselt
rodriguez
drac
duk
lakes
lulz
lasz
nova
sland
treb
##iade
##ratch
##dling
##agh
##yt
##wered
##tist
##ester
##ales
##arbon
##oum
##ouched
##icine
##assion
belder
promin
##adra
##ulously
eurocont
##iating
unid
parking
havel
exter
##ocracy
reset
atanas
##ighters
semeta
##ardini
interrog
cance
plov
amar
recap
prix
concur
##mines
##rical
discred
nationally
stigm
confession
regulates
maja
representations
##owners
cannes
necessit
infants
objected
##iko
##ourably
105
eased
ruth
combines
retreat
poster
countering
communicating
morally
renewing
waterway
deepened
landed
landmines
separating
bidding
filmmakers
believers
televised
execute
eleph
malad
justifiable
regularity
petkov
illusions
##boards
clever
ouatt
displace
incorporation
motherhood
jeopardises
disciplinary
uniformly
garcia
forgive
hyper
worsened
disrupt
recycled
novosti
hussein
indisput
dioxin
technique
kidney
##ophobic
battal
evacuation
fulfillment
annulled
ipcc
celsius
demolition
reintroduction
andorra
eurosceptics
rudovic
muscardini
landslide
grenades
cruise
prioritising
hostilities
mhp
zdravko
partisan
mixture
dmitry
dwindling
jocic
alkalaj
defamation
unanswered
philharmonic
eurocontrol
ouattara
baku
cum
cock
hire
hiring
lately
rect
tide
tire
##sat
##fl
##zyn
##1n1
##9m
##tiously
##inav
##orlic
##orised
##iski
##real
##ecki
##ilings
rear
##mented
##ida
##acon
altered
##adis
##osph
unau
unex
parav
##mble
leu
hein
regen
##istration
inciting
plug
expon
##ancic
posing
arhin
peru
relied
markac
##tentions
bojan
feio
imo
scratch
gros
afflic
persists
annum
revamp
pottering
achievable
gentle
ceilings
##mont
illegitim
originate
momcil
criminalise
audio
denis
230
subsidise
adjusting
blocs
##inson
##afone
probability
sadiku
comparability
unpre
teaches
paint
subsidiaries
fragility
muja
searched
mounted
scandinav
squand
femin
##mosh
1973
reunite
clashed
smugglers
vocal
depriving
##giving
terminate
coincided
vasile
inquiries
pregnancy
paradoxically
conspic
admiration
dishonest
shrink
fatigue
haulage
dimitrij
pdl
disconn
advertisements
overfishing
tudjman
vodafone
plavsic
zukorlic
magnificent
lulzim
laszlo
plovdiv
unauth
cages
crafts
das
hool
jam
kuz
lasts
lenders
pale
ray
rated
riz
vrs
##locking
##rb
##bc
##4m
##vig
##8m
anast
##roft
##ilo
whaling
euromed
depar
unin
unhr
##raged
expel
shy
sami
lew
##tica
repairs
##reevy
presevo
tracks
abye
newcom
newborn
compassion
##grades
mrf
verifying
contend
contacted
demag
termination
prefect
socialism
orderly
confuse
defensive
deser
quad
instruct
guitar
##world
affiliated
evn
legalisation
equals
barred
slave
email
downer
aiding
founders
harming
singing
combus
euronest
collaps
janez
tops
absentia
illy
runner
chiefly
137
directorates
connects
deniz
repealed
bidders
bratis
consultant
fogh
drill
legitimately
doubtful
universally
bureaucrats
permitting
saddam
unpleas
renoun
fiji
radicalisation
versus
theatres
mirror
infringed
1979
pulling
implicated
disciplines
mexican
vlasic
scepanovic
taiwanese
deprive
dinars
torch
leakage
weighing
monasteries
homosexuals
angelilli
angered
mikh
1930s
tapped
heroes
admiral
shrinking
avert
bishops
inconven
discontin
interlink
svensson
embarrassing
garnered
kovacs
bruno
theoretical
firefighters
taseer
thorny
uighurs
irrational
insignific
kuneva
schook
overriding
hoolig
unhrc
abyei
banc
cbr
dol
fing
hid
hij
h1n1
jack
lung
mous
nec
oic
oath
por
rak
zb
##ament
##hist
##fs
##kim
##orates
##orrup
inex
prover
##ulted
eurod
haxh
##unk
prone
shots
hasn
impress
sail
samar
samir
lethal
##aba
doomed
##qual
amate
margar
marinescu
outdo
underc
##ministration
basbug
##gart
remikovic
rightful
carto
principality
barrels
presentations
participatory
tarn
brod
electrom
ethn
counteract
kindly
originated
diplomas
salaf
tymosh
donate
restricts
pollut
streams
patch
ranko
slowing
tunisians
unites
deploying
unsolved
clarifies
exempted
sells
premise
revealing
rescued
implicit
jeopardy
clinics
fifthly
testified
sparks
inhabited
triggering
architectural
fitting
alarmed
relocate
telephony
synonym
dismantled
khadra
shoes
selimi
differentiation
bowles
catalogue
encompassing
breastfe
##thesis
mccreevy
lapt
encompasses
pioneering
overlap
teenagers
unscrupulous
hackers
schroeder
limbo
cemetery
admire
unbelievable
carcinogenic
paedoph
nicolae
gheorghe
rhyth
unidenti
maladministration
unexpl
desertification
tymoshenko
khadraoui
bend
bind
cuc
gordan
gsm
jol
jpa
klin
ns
npt
og
rade
sop
ule
##city
##bb
##umber
##erra
##alc
##aler
##arlo
##ouri
##outing
isch
##thetic
##oli
##adier
detentions
##rams
exh
##ainted
atp
whichever
leaf
##mek
##meat
presumption
interactive
dob
disg
sokol
decrees
##ensen
proph
upwards
##avis
transc
relay
endure
traum
natura
2016
compelled
##racting
favor
lock
respectful
turkishness
activation
skies
innovate
distorting
145
sixty
broadest
brez
vein
generosity
functionality
audy
copies
designing
djur
breakup
califor
doubtless
sanitation
guler
attracts
rebal
digitisation
hollywood
1988
appreciates
widest
spreads
hotline
miranda
realistically
unnamed
insuffici
360
stationed
calculate
dragged
devastation
nominal
johnson
sahin
baykal
yielded
ventures
ugandan
##missibility
confiscation
clusters
gnp
taboo
outsourcing
naples
northeastern
crazy
inacc
subscribe
trailers
unfolding
polledo
wikile
kotor
nanotechnology
veselin
indiscriminate
inventions
dicarlo
kashgar
insolvency
milutinovic
pazar
dumit
dalmati
stavrakakis
momcilo
unauthorised
combustion
unidentified
dys
gf
ico
jim
jna
kg
kop
kust
lind
lugg
mire
nights
nbs
sting
tzan
voul
##vis
##63
##erational
##eno
##icious
##icurity
##acies
alt
##itika
shoe
impati
lep
hep
chry
##iang
presum
interpar
##llo
caning
incitement
stricken
minus
##ghi
##loaded
cras
manj
prij
array
##ogar
boast
insults
##pared
##ajer
energ
lawful
communique
brill
bang
##life
##garakis
busek
bless
borut
attends
refere
##itsa
downgraded
##phone
aided
##places
closes
ruined
releasing
distances
saric
143
roadbl
fallout
doubling
100th
libyans
flexicurity
praises
fox
reminisc
paliade
examines
privatising
archive
universality
punitive
revenge
strictest
graduated
surprises
davinic
envoys
##ycle
comparing
accomplic
sizeable
photography
##setete
dissu
1970
durable
hazards
sacred
minimis
efa
rocked
culmination
accusation
sceptics
depositors
extracted
neglecting
denouncing
tactical
exhaust
vigilance
victories
interrupt
differentiate
venezuelan
fanatic
brigadier
incorrectly
ionian
relaunching
intrins
crystal
ample
lambs
hauliers
recruiting
mdgs
kukes
lambert
cedomir
invoices
megaw
potocnik
catering
ambiguity
landfill
szajer
##lorome
pervasive
1325
cyberc
inflexible
compatriots
outlawed
upheaval
meltdown
dichlorome
corbett
##zynski
grossetete
unprepared
interlinked
cbrn
zbogar
##orruption
ischinger
wikileaks
luggage
voulgarakis
roadblocks
paliadeli
ai
dwell
fence
hina
kav
kiss
mai
nerv
puk
rist
tand
tamp
yach
##lie
##pce
##mond
##1m
##10
##inished
##roi
##rot
##roit
##icable
##ecom
forging
stances
##ota
##ado
##ulative
##vering
ense
##erson
##mbrance
##aker
hash
##ovsky
adem
intergen
ecj
recom
spati
maric
##licity
##aping
##autions
economical
permissible
##wei
groupings
specially
tramp
sierra
crete
gregor
guenter
promot
inflam
slump
slaugh
revoked
specificities
modalities
builds
trif
encroach
enclave
flats
swap
administrator
centralisation
precautions
neighb
despair
organiser
##pske
##zef
sentencing
musli
roundtable
strives
##iscip
patron
experiments
remembrance
##ahu
correctness
paperwork
wordings
horrible
attractiveness
buyuk
normalise
luis
deriving
unsu
matched
mirjana
isolate
conversion
walking
##nius
checkpoints
constituencies
anticorruption
rotation
krush
secularists
complementarity
worsen
pragmatism
disrupted
knees
snip
shelf
attained
wooden
scarcity
bbb
stavre
interruption
mladenov
tentative
pigs
accumulation
habitats
beekeepers
compliment
inflow
inflows
deutsch
indifference
kidnapped
slipped
nickn
fruits
kaczynski
vilnius
juvenile
ucits
assaults
maltese
therapy
omv
ignorance
misunderstandings
asean
metropolitan
amariei
unpleasant
breastfeeding
klinz
tzanis
brilliant
intergenerational
bore
cip
fram
kus
lv
nit
ss
sigh
sary
sult
zub
°c
##ranca
##bir
##bage
##hill
##win
thread
##anaki
onerous
##urica
staging
##aco
alvar
##utable
commens
acid
##cho
##cheva
chick
##andowski
seed
##uda
admissibility
##ieg
butmir
ecology
strides
##liamentary
expiry
amr
disresp
peas
compile
monnet
mare
marmar
##agin
appren
manka
upro
underwater
transmit
bashar
roth
##okapic
bangl
formid
bias
balzani
militi
smil
deprec
safet
oppressed
powered
##medicine
revoke
103
thankfully
happily
sheets
harves
apologies
mediating
mediafax
sensibly
disposed
trades
broadening
misgiving
directories
karl
##umptions
lawsuits
professionally
trophy
adequacy
telemedicine
merge
srpske
sanitary
shipment
flowing
davis
luksic
ljube
breaching
convenient
entitlements
inflationary
stipulating
pirates
federalist
translations
imagination
anticipates
rhine
envisioning
georgios
explosions
ibm
nominations
wrapping
absorbed
atrocity
catholics
ozkok
cotton
collaborated
antibiotic
expulsions
nazism
savage
recruited
embraced
lorries
shipyard
devaluation
curtailed
skep
discouraged
symptom
coward
obscure
infantry
embarrass
lazarevic
pessimistic
creators
tavares
cartels
reconfir
pianist
penetration
episode
lesbian
erika
silvio
krivokapic
sorely
sewage
ethiopia
superficial
bottlenecks
lewandowski
fingers
amateur
salafranca
synonymous
california
spatial
slaughtered
commensurate
banglades
aeg
bp
bund
cess
cush
diana
faz
gig
lign
mitic
oust
poc
sip
santa
tents
va
wats
zile
##lana
##nance
##pro
##fish
##kins
##vska
##zai
##onies
##anit
inner
token
##arctic
stoy
##ulovic
##ceg
##ithic
##utmann
##osk
hag
##opoulou
enpi
exod
##akovic
aging
##meier
seeds
recasting
needing
spont
indiv
##elro
underworld
perf
perverse
invented
overst
myth
##mbersome
##ribly
requis
trautmann
defuse
quake
talented
caric
extract
bujar
draghi
smar
oppressive
##media
profiles
positioning
hari
##pljanin
charities
singers
##standard
broker
ideally
colours
objectivity
contexts
ceased
saranda
colleges
##oyed
detroit
187
pavel
135
damanaki
christie
watered
stripped
designer
consultancy
circumvent
bode
legitimise
removes
hitler
graft
petty
1985
ceremonies
renault
jozef
retains
interviewed
solemn
falsification
tomatoes
races
ivanovski
assassinated
tesla
sponsor
##ascular
brutally
homophobia
800m
relocated
wraps
narrowly
terminated
prudence
picking
antarctic
brotherhood
battling
rubber
anchov
##dorff
beatings
revitalisation
unwillingness
inconce
garden
cumbersome
pecul
stunning
ravaged
zupljanin
frontier
disguised
snezana
reckless
athletics
gendarmer
nistelro
tyranny
ancest
disintegration
embedded
vlahovic
stigmatis
illegitimate
bratislava
insignificant
reminiscent
cybercri
apprentices
formidable
misgivings
lignite
watson
exodus
spontane
020
bru
bick
homet
kade
kato
len
rack
sour
sba
vran
yell
##ele
##tt
##rand
##note
##pable
##aard
##yer
##oij
##mus
##zim
##jkovic
##tily
ing
inse
comed
euroc
unse
meter
envel
resisting
leone
heightened
chas
##andaf
orland
##mean
replic
trandaf
##umen
##ishi
abu
plum
##outed
moreira
accent
spy
opting
apple
betting
outc
outraged
##eploy
overturn
myster
signalling
imam
mediu
##athe
redeploy
instal
bullet
planting
afflu
blending
growers
refin
refou
taxed
slashed
moder
##retched
risking
easiest
privately
126
geological
judo
internalisation
exploded
senators
multitude
146
drawback
festivities
coptic
pensioner
reinstate
reinvig
drives
polluted
ordnance
patrol
penalising
##fiably
flexibly
##izing
rapkay
##rugu
arrivals
malaria
dischar
hybrid
##petrol
preferably
murderers
symbolises
magu
curious
broadcasts
dominance
cermak
resisted
##umble
75m
hurry
clarifications
stemmed
prevails
##promising
hinted
gyps
trajkovic
mixing
manipulate
divac
unwanted
kimber
##telecom
samuel
1956
hindered
collaborating
rubbish
catalan
catalonia
instructed
swimmer
orchestrated
uncompromising
plainly
separatists
untouched
##iliating
discrepancy
eritre
hinge
suburb
prevalence
amazing
desertec
seismic
entrenched
evangelos
jankulovska
bancroft
interparliamentary
lambsdorff
nervous
gregorian
disrespect
aegis
cybercrime
hometown
kadek
yellow
envelope
orlando
aide
ailing
biss
bourge
dulic
fever
gav
hl
konstantin
mary
misl
nail
pm
yards
##iyet
##eisen
##tage
##nh
##md
##hamed
anom
tome
tours
fora
##then
##activ
##vert
##chen
sao
leasing
prescriptions
interact
##asty
theirs
##ipi
exposing
spared
##itionally
veritable
outp
outwe
arist
concord
##elle
peres
##formation
invisible
commits
brunt
scape
organized
2017
rulers
boss
climatic
downright
shelling
participates
surroi
tarcul
hart
madness
metall
unfinished
erwan
releases
wedding
senator
packett
postal
trader
cutbacks
mandic
damasc
circus
circulated
chairmen
grounded
embry
distributor
medication
murat
dividends
micic
cooperated
exhibited
characterise
holes
revisions
comparisons
adaptations
pains
cheer
errone
managerial
dissident
antonescu
cheaply
correspondence
durban
cautiously
implication
disciplined
glaring
screens
reaffirming
unbal
vows
earmarking
renovating
interconnect
gyur
griev
grigor
attaining
pesticide
escalating
mediators
andrew
mastermin
underpinning
tailor
fascism
unconditionally
paradoxical
hajred
deportations
negligible
rendered
kidnapping
hoxhaj
lodge
##zzo
subcontractors
subcontracting
anatolia
aggravated
divergent
mahmoud
withholding
1049
johannes
towers
hilmi
embezzlement
reshuffle
summoned
vukotic
boycotting
susceptible
hysteria
jihad
demagog
eurodac
dichloromethane
alvaro
cushion
smarter
inconceivable
gendarmerie
nistelrooij
trandafir
kimberley
bissau
misled
outweigh
tarculovski
3g
b6
bent
bise
cou
dc
daw
eminent
fena
glig
hens
hrist
ilija
kok
lent
lira
lucas
mja
ote
velj
zor
##lay
##een
##kar
##vili
inception
##iser
##reated
##lev
euph
eusr
wei
stev
##unted
##ching
sailing
repaid
reprehensible
presupp
spurred
bech
underp
underf
performs
perisic
obey
overp
##ivell
assumptions
rohs
##obser
traine
formations
longtime
bizar
standoff
southwest
carpet
favourably
blames
supplements
opportune
avian
legalise
principled
complements
slash
revived
modules
fishers
##timir
practition
sustainably
fundamentalists
sociologist
specialisation
##erck
marched
beginnings
cez
dispatch
readings
selman
vehe
176
shareholder
container
weakens
##janic
planted
materialise
probable
gravity
preferable
excesses
rebell
logically
intelligently
surviving
##iffeisen
saleh
casts
1975
perpetrator
scrutinised
dedicate
secularist
reassuring
complemented
unbear
bolder
posei
700m
bilaterally
440
humiliating
froze
crowded
cancellations
rainfall
anglo
beds
khod
outbreaks
cinemat
wolski
enrichment
mihail
##piece
consciousness
puppet
tears
acquittal
inventory
eagerly
suburbs
discouraging
zvon
indebtedness
interloc
nutritional
stojkovic
unquestionable
rampant
ertms
herald
mathematics
disturbances
rendition
elizabeth
overshadowed
fernandes
squee
underwent
kuwait
ufm
indisputable
insufficiently
presumably
##isciplinary
chickens
bangladesh
cessation
anchovy
peculiar
refoulement
bourgeois
scapego
damascus
mjaft
##observer
vehement
bav
cit
damp
ems
etern
hay
ili
kle
omar
omer
pist
rivell
uy
uen
waged
zah
##eter
##rence
##yll
##mens
##fest
##kse
##anol
##atti
##arial
##roduce
##illy
reul
whist
##thouse
stro
conception
##rik
unar
unim
##unting
notch
height
##oven
orlov
##mez
##uding
thereof
traces
##uming
butler
abortions
presided
spas
unionists
##logy
##loading
marry
marnh
workplaces
##reatment
##acka
##ludge
discredit
substandard
communal
ensuing
##egaard
raiffeisen
##pring
eveniment
qua
carp
cornel
schuman
bosses
refur
amends
powerless
courtroom
120m
113
harri
harmed
periodic
excuses
radu
ethnicities
chooses
campaigned
kills
wasteful
lightly
satisfying
satisfies
nikolay
islamists
belarusians
mali
preda
speeds
merged
multid
circumstance
sensational
inspiring
##tapped
silva
signaled
divergence
sounded
arable
neighbourhoods
1982
urbanisation
widened
fraga
bridging
vukovic
converted
tomic
franjo
utilising
discriminating
##orkovsky
preceding
cardinal
mentor
translates
unrelia
dawn
deteriorate
pluralist
coaches
klaud
bakir
gallup
cathed
lags
sympathetic
sahel
skiers
attributes
hedegaard
synag
inherit
andrei
khal
levied
ghetto
magazines
sesar
caspary
gauge
iccat
repatriated
dogma
unjusti
applause
vassil
rajko
bypassing
scholarships
emirates
kelly
pardon
unquestionably
premiums
divergences
bacons
bloomberg
gelu
vecernje
cemil
matias
arben
forcibly
unprof
rwanda
conscientious
gloom
energetic
descendants
roland
retrospective
chirac
embracing
microcredit
culprits
recapital
samaras
saryusz
requisite
bickering
bizarre
unimagin
marnhac
evenimentul
aes
dated
dcm
eh
hays
kwh
lion
lich
nac
nie
ousted
pere
rib
sacked
vs
waging
##lord
##cyc
##sis
##wr
##jevo
thumb
##erg
##eror
##erse
##errou
##tif
##tiff
##oria
inaction
##itt
##omo
sterck
##irts
unco
unthink
untapped
ney
##imon
##ocial
##akash
hass
levers
##ovol
seb
sequ
##udic
204
abrup
plunder
compounded
##amin
deception
##agan
belated
vertical
contag
demilitar
outre
arson
invoke
kostic
proposition
boel
assuring
additives
sits
##oka
teeth
teodor
centr
clears
securitisation
maystadt
deserving
biod
accorded
herceg
mainland
looph
buff
blown
freeing
restar
moderation
positioned
sheer
fundamentals
capp
shortest
administrators
janjic
credited
ern
plead
immoral
crosses
africans
215
killers
facilitator
orden
enhances
trialogues
drum
assemblies
eighty
rife
##oulas
commentators
feeds
displays
storing
hala
flew
revolt
walter
squab
franz
dissent
virtuous
reunify
veton
grossman
anticipating
reservo
mungiu
enthusiastically
concealed
earnest
attribute
coincides
rewarding
aziz
scrapped
jumped
gestures
relaxation
schwarzen
reversal
reversing
steadfast
orphans
partitioning
expedition
miletic
laperrou
attorneys
lorry
reintroduc
minerals
cuis
andriki
redefine
fertility
goncz
doris
arsenal
nominee
horrors
offspring
weightlifting
cynicism
unhealth
coercion
inefficiency
disapproval
nezavis
##iguration
reconstructed
unreservedly
battalion
jolie
ulemek
inaccurate
pukanic
inflamm
zilei
outcry
affluent
unbalanced
hajredin
unbearable
khodorkovsky
rivellini
uygh
baconschi
sterckx
unthinkable
loophole
laperrouze
bits
erected
fland
foul
gill
gah
jov
joke
kai
lech
mb
mw
mapping
pent
pall
pries
pdp
sludge
vanc
wrec
zal
##lon
##eing
##rue
##nut
##bay
##mr
##wright
##jer
##inas
##inals
invention
##isal
##icing
##ectious
##ilisi
releg
rearing
euobserver
stam
##otopoulos
##riger
nek
nexh
##ersed
reson
agron
haste
saakash
heter
##arde
tray
liv
liver
20km
##asto
strang
reclaim
acceding
spray
##ager
contests
dementi
turb
politicised
##avic
transg
invaded
invoked
prey
lawmaking
remot
stig
desk
tale
bulld
carri
evans
smile
##menting
starvation
infilt
infectious
behaving
refriger
000m
respectable
##reda
unifil
broz
broch
swing
variations
##jean
delim
consequent
karzai
morgan
ivor
copper
mindset
##ographic
danjean
meron
epc
assembled
institutionalised
grams
drove
masse
panay
christoph
##metric
021
1981
reconstruct
reconciled
occurrences
frequencies
widen
utop
riga
sincerity
physics
photovol
casino
infringing
irregularity
hospitality
quarterly
pirated
embarking
gunned
socioeconomic
retailer
pacolli
endangers
burdensome
renovations
endeavouring
humiliation
hydrogen
1963
novine
rains
shelters
angle
patriotism
woods
encountering
divisive
fuelling
disturbed
cofinanced
affirming
jumping
manifestation
elaborated
collaborative
husbandry
eighteen
commemorated
injustices
loudly
kirilov
gateway
sample
cantons
skele
pronounce
eurosceptic
adhering
overcap
1905
affirmation
lutovska
tbilisi
landslides
prioritised
todorovic
empowered
kinder
saddened
yildiz
levelled
relieved
yasar
manjola
unsuitable
jozefina
bechtel
unhealthy
flanders
saakashvili
photovolta
cc
cik
cds
cpi
dress
djan
fen
goul
gora
hok
ipp
jso
jord
kres
lange
mau
mits
mpa
oleg
pance
pause
rio
rash
yu
zoo
##iol
##iveness
##lou
##sc
##gun
##fty
##vities
##wu
##wart
thick
##enovski
##oradic
##iler
##ilovic
alog
##adle
##ulf
##ocation
repressed
advers
lique
##umdz
##earing
abru
sporadic
conserve
##apes
cradle
upgrades
conclusive
terribly
inviol
relent
elusive
impe
raided
organiz
quint
extortion
looming
fring
##ivat
hereby
schmitt
blunt
numbering
welsh
changeover
completes
tooth
slaves
handles
thankful
gray
cyril
airpl
111
skating
fourteen
swine
retal
153
deceived
potatoes
finalisation
disperse
irrit
honorary
182
generational
manders
mobtel
obsession
debtor
ivay
ivory
218
reinst
seeker
shark
steam
drinks
masses
epic
multimedia
justifying
divides
remarked
batteries
##issance
mosaic
attractions
stimulation
digit
fias
##awi
strauss
conversely
simplistic
ramifications
dissolved
1978
1971
markedly
mitrovic
uniformity
vigour
occasional
imagined
ltd
assassinations
unrelated
dismissing
600m
plurality
camara
grandchildren
publisher
dumped
displaying
psychiatric
yemeni
##placeable
sacrificing
stimulates
velimir
remedied
mehmed
sahra
irreplaceable
cosm
tacit
hedh
1945
dsb
hammer
parliamentarian
ironic
siemens
lebanese
##mendi
bajrami
##csany
blogger
bagis
elaboration
bogdan
aggreg
wrestler
annulment
blatantly
proxima
undecided
sculptures
authenticity
##oufis
staunchly
2025
sulph
steinberg
potocari
frontiers
deferred
astonishing
empowerment
insurgency
elektropri
impaired
kandic
mohammed
interregional
meteorological
revelations
displacement
outdoor
dysfunction
kusturica
musliu
buyukanit
stavrevski
sultan
##oskoufis
chastel
gyurcsany
bisexual
gligor
veljovic
weiwei
practitioners
klaudija
cathedral
unimaginable
outreach
cuisine
alogoskoufis
bn
bourg
cis
click
fides
fraction
glav
gieg
hod
huse
hugh
jes
kul
lon
lati
lump
sg
sq
tem
um
viv
wiped
##iors
##col
##tag
##rat
##ped
##yard
##ught
##oard
##gon
##vreda
##jaga
##tifies
inexp
##isure
##arag
##rell
andean
##enth
bekim
eusf
##olson
##sets
##sements
##riz
##rified
##utt
##iative
##oslov
hailing
unten
unaff
neaf
parish
##unct
##ppings
enisa
resounding
shan
lee
leisure
##antes
chess
##endt
aden
trum
##umerable
##abet
ecologically
abbas
doyle
recess
newer
##ancip
##amous
secrets
crashed
governs
reliant
overla
overestim
regionally
grouping
meddling
##lik
stiff
emperor
warfare
matera
cartel
majorities
corn
fred
openings
makfax
allowable
refoc
ears
##ikos
emancip
##othermal
specifics
downstream
12m
geothermal
unimp
fullani
flash
innumerable
152
plev
ethno
netany
purse
analytical
255
misgu
salute
tribune
168
169
morality
##onto
halfway
berets
stealing
unacc
unaccom
pursues
standardise
afghans
ranges
boarding
observes
extrajud
jeleva
sounding
purchas
blogs
struggled
intentionally
dominique
correcting
percentages
rescuing
nicarag
fruitless
vigo
gunter
grandf
bolst
kilic
##irova
milosavljevic
timetables
diagnos
frustrating
quantified
##olasik
kabul
inspectorate
ljubicic
competitor
aligning
toronto
knocking
collaborators
inconsistency
##rinidis
nicholson
manoeuvres
switching
malaysian
thirteen
sensitivities
lecture
lambrinidis
hubner
interdependent
rogge
zvec
reallocation
bleak
underscored
fruition
empowering
rabies
niksic
axis
paralysed
inadmissible
guerrill
biocidal
receipt
krstic
havoc
cetinje
hydroc
wahhabi
relinquish
slander
resettle
ruthless
mikhail
tandem
marmara
maguwu
vehemently
centrally
cappato
inflammatory
gahler
priests
transgender
skeleton
photovoltaic
hokmark
abruzzo
elektroprivreda
giegold
untenable
netanyahu
baz
bauer
cey
dab
danc
ego
fbi
grec
hig
iom
jut
jeg
jacks
kck
lak
mif
nun
novo
rwe
sine
vard
vans
##lac
##cale
##ew
##pace
##des
##uard
##my
##flation
##kw
##zo
##wear
##janska
##jiang
##xist
antis
##alism
##aso
##vez
##olit
stolo
alic
##ulia
##orte
##osa
unlock
sue
counse
resuming
atl
##cht
impending
implied
impeding
chen
chicken
gok
##ievski
truce
##llery
cogn
strpce
dogm
plamen
disorders
spin
monies
monks
##loqu
opium
timeline
appalled
##duct
demir
conceded
##elined
politicisation
underval
lament
laud
marketed
sitel
debit
brasov
##asses
banners
scared
confess
bullying
bulatovic
carmaker
hercz
##rank
necessities
stephan
earners
oppress
barth
void
101
beneath
phare
keyser
referral
foca
swall
studio
shortfall
creditor
##urdy
mechanical
delight
runners
irony
northwestern
tenor
enlargements
sharks
evidenced
boosts
personalities
unduly
standardising
tempted
0963
petr
numer
mask
silk
murderer
destroys
compensating
contraction
horror
aliyev
restructured
vatan
corporal
cheque
ombudsmen
ferenc
convenience
besimi
fosters
doorstep
incentiv
updates
mentally
glance
touching
certify
gamble
dragoljub
bottles
stimuli
naim
naum
constraint
memija
jerzy
intermediary
filipovic
nigerian
stavros
surprisingly
sidelined
photographers
overhauling
uncomfort
mikolasik
pseud
crying
lectures
inventors
recruits
##abella
dimitrijevic
contravention
periphery
licensed
sculpture
giants
polarisation
lamberto
disseminate
hindrance
surpassed
##stroy
nominees
schmidt
patrick
extermination
gentleman
cartoon
nicknamed
kusari
concordia
trainees
dementias
djankov
ivaylo
bourgas
neafc
misguided
extrajudicial
hydrocarbon
jackson
stolojan
herczog
bite
bury
cac
cag
casting
dent
dun
dared
dancing
ftt
gram
gomes
ht
hir
jones
ln
mene
ogn
omitted
pip
rogue
sink
tiger
yard
##cill
##sl
##yi
##oot
##karic
##titious
##isp
##alo
##aru
##arska
##olt
assel
europa
##illon
##osium
megl
memeti
parity
exiting
##mbowski
##usc
##chenko
saber
heal
chic
polit
##iani
preserves
##istry
##dered
dispel
spah
workload
nostal
manpower
priest
upt
upstream
ifc
markos
preamb
inserted
feast
##inko
humanist
endemic
trauma
futures
instant
carrot
milib
lovers
legislations
legislating
bujan
##gins
suppressed
refiner
barring
102
recognitions
128
harry
harkin
ideologies
apathy
varieties
157
pleasing
environmentalists
invests
appease
radulovic
dispose
irrig
engulf
detach
##zembowski
##itaries
delegate
165
avoids
enlightened
firmer
industrialists
superstate
consisted
berat
brakes
executing
guideline
remembers
undue
##neliev
edward
editors
sexes
pushes
noteworthy
advocacy
seemo
riches
sadness
quarrel
visions
normalising
##export
trupel
billstrom
domino
convert
fostered
ceram
casini
milliyet
1976
vaccinations
babic
symposium
archaeologist
gallagh
colonies
lagumdz
somali
grief
pretending
polluters
equipping
sweet
escalate
annexed
regaining
harassed
relaxing
provocations
cruelty
abstract
jarzembowski
deletion
hajd
prerogative
screenings
montreal
obstructed
unambiguously
bhatti
xhem
hardships
climbed
steinmeier
williams
hostility
tudor
zelaya
avenues
mendez
jahjaga
downsizing
incursion
syndic
frightening
mourners
nafo
##agnetic
complacency
assimilation
leonardo
staggering
tsvetanov
prominence
kuzmanovic
zubin
underpins
rebellion
emsa
nezavisne
remoteness
mauro
fiasco
plevneliev
uncomfortable
menekse
asselborn
preamble
miliband
gallagher
lagumdzija
ipr
kim
klan
ldp
maz
paj
pont
rans
tum
troup
wound
wran
##rze
##rendt
##dy
##hle
##vd
##zad
##zik
##orating
##edor
##rez
##oude
##icz
##eci
altering
##rie
##uling
##illa
unwise
sued
##akia
shaking
impacted
saif
lease
leather
##oved
politika
##meas
reproach
##endous
regression
wash
208
##abis
aboard
strum
expatri
rectified
accuses
timor
timid
notify
belts
interns
outsk
upward
iftar
legija
bocevski
##ondo
discord
worlds
imer
speculating
##athan
cares
farce
##tivar
trademark
corrig
canning
cannabis
buhler
infamous
serbians
viewpoints
behrendt
avis
##ikh
taxing
107
grub
##rett
qualif
117
trieste
geoff
gerhard
suffrage
coloss
brigh
##iera
misin
hardline
athoc
decidedly
czechoslov
doubles
drift
traveling
detailing
subsidising
260
miro
speeded
devoid
merging
sexually
ripe
burge
inspected
ignalina
battery
compensatory
35th
concentrations
stimulated
artillery
rena
billboards
switched
mirac
restructurings
walks
births
residues
torturing
splitting
antonis
faiths
bombed
dubai
alleging
minimising
galvan
efsf
bailouts
contestants
forecasting
entailed
330
liquidation
unborn
##cripts
contemplate
persistence
predicting
interpreting
1968
bogus
bogged
hatay
extracting
intimidate
wildlife
1948
repairing
hamm
levies
contingency
torr
camera
austin
discovering
underpinned
scholar
hrw
cadast
molec
coexist
unease
nazis
aroused
subscribers
arif
asymmetries
lutfi
abducted
arrogant
conquer
gonul
1089
grenade
attentively
tokyay
kelmendi
derailed
gostivar
plaus
emigrate
merchant
avenue
isaak
epidemics
omissions
antimicrobials
carnival
tycoon
xinjiang
poznan
draconian
cumulative
scandinavian
newcomers
collapsing
electromagnetic
brezovica
accomplices
comedy
discharges
eritrean
erroneous
unarmed
unreliable
schwarzenberg
sulphur
higgins
jeggle
irrigation
troupes
outskirts
bisc
btc
craft
ccs
dap
denti
ej
fid
fleg
gd
hk
hdi
hills
lush
lane
lila
mg
mired
pad
ries
rosen
sic
tapping
vor
vand
vine
wimb
wathe
zab
##ijevic
##aven
##bu
##ui
##mium
##gates
##vs
##tid
ans
##alic
##ark
andric
rey
##lyter
##iders
##olitic
sty
##acent
alsat
##otov
##terdam
hair
neves
meiss
##oped
##oping
hastily
impul
##usta
polanc
repris
servant
presumed
trn
ecu
abiding
stron
expands
##quit
needle
peers
acceded
opa
indo
decim
decency
decani
##ativeness
##agu
apportion
##autical
vera
##emose
##emirova
##avan
##avica
laur
##tenberger
prefers
boil
insular
insert
gene
wells
specifies
##oba
responsive
grech
compel
guise
busoi
estemirova
dragu
realises
schald
schlyter
ids
technic
menu
principe
##ledon
barrel
##sko
regionalisation
pressur
reformers
tarabella
militarily
ruhle
flown
flavour
deceit
understandably
supers
farmland
papast
criminalisation
185
midlands
choir
messaging
morina
langen
submits
provoking
nikos
adjacent
codifying
consultants
commercialisation
devil
calib
moldov
##ahce
akin
freestyle
conditioned
rebate
receptive
symbolically
lifesty
occupies
##keeper
matching
windm
convicts
seller
ceric
coreper
ballistic
virtues
rotterdam
inadequacy
azeri
customary
gladly
gala
remarkably
boliv
depths
001
1960
grim
novelist
reintegrate
##breaking
aleksander
escalated
repaired
hamza
duplicate
ljubomir
ljubisa
jelasic
vasic
wilson
hectare
736
apologised
pieter
discoveries
unilever
loving
##thetical
tractor
evacuate
blanka
expedite
cadec
cadmium
unusually
staes
dishes
diamond
diamonds
paralymp
jasen
metrology
sculptor
giannak
seizures
orphanages
roganovic
assigning
guarantors
disseminating
hinders
routinely
renegotiate
adventure
ambiguities
abundance
stifle
horrendous
inferior
embodied
##panied
telegraf
sotoude
makedonija
cocktail
hooligans
unexploded
prijedor
maize
presupposes
lichtenberger
christopher
overcapacity
goulard
impeach
overlapping
unaccompanied
nicaragua
greco
antisocial
laudable
meglena
refineries
flegt
wimbledon
wathelet
polancec
dragutin
schaldemose
lifestyles
sotoudeh
burs
cak
cior
dag
dressed
erol
fres
fasting
gad
gru
jed
lid
mum
neck
raging
sø
wester
yian
##lists
##tf
##dem
##aqu
##umbers
##oons
##fu
##kward
##keste
thwar
##inate
##inski
##ank
##antine
inward
##isable
##isavljevic
ani
wet
itre
stalling
##acious
altar
comr
unbi
##erski
commands
exor
##imata
shining
shouting
savic
heels
healing
org
seated
##isted
button
plate
expo
usur
ussr
disinc
spying
soya
timisoara
##lica
##aume
concise
##elina
overb
insulation
additions
solo
##onders
discount
discourse
publicised
lawlessness
centrist
brdo
speculated
##lified
tram
budd
scattered
remn
albena
natalia
organises
visibly
persian
persisting
fava
fract
initiation
initialled
drago
infin
infighting
awkward
healthier
avni
violators
backlog
barrett
restrained
libel
aides
airb
chart
singled
uniforms
lessen
flame
ambo
columb
potok
kek
precip
entries
obliging
appropriation
miscon
misinter
181
infrastructural
totaling
karel
animated
circulate
firmness
traveled
selfish
drina
sanctioned
merd
justifiably
burk
bodygu
duo
duff
faults
shipowners
testament
pantic
flower
conditioning
optimising
80m
kinga
complicit
automated
visionary
painters
dignitaries
punishable
attendees
besim
diametric
bombers
discriminates
quarterfin
surroundings
guarded
guarding
federalism
validated
mentoring
translators
amidst
miguel
haziri
rocky
sponsoring
archaeology
hurric
##erbahce
eurobond
bolkeste
psychologist
waiving
upholds
aquatic
naft
##gaard
borrowed
intimidated
tactic
quantifiable
lithuanians
bankruptcies
philosopher
dusko
stojanovski
neoliberalism
##ravka
suitability
imperialism
thermo
predominant
rivalry
queues
brigades
amph
accomplishments
ingredient
hopefuls
rtrs
prematurely
unexpectedly
mauritanian
napolit
plunge
colonialism
mortgages
sleeping
renegotiation
rifle
theoretically
hypothetical
instigated
kahn
bubble
##onstantinou
esteemed
vinci
syndrome
subjective
vlachs
incompetence
puzzle
semifinals
mockery
hsbc
aeroplanes
appraisal
confessions
anastas
sopran
fenerbahce
organizations
sahrawi
barthol
pseudo
hirsch
renaissance
daphne
meissner
unbiased
misinterp
bolkestein
napolitano
1a
atif
bia
bjel
eaves
gaming
hac
ian
iac
iia
jha
kod
kran
moll
sain
sang
tul
vpas
winding
zi
##evelop
##ais
##mod
##kop
##jin
##erun
##anova
inject
##edience
##atz
##isse
##arov
##arging
##ouver
##itated
##omination
bells
##lean
eugen
##olic
stap
##aders
deh
deau
##illusion
##osc
mega
parthen
##tsen
##rable
prv
prilep
councill
##akova
resent
##chron
shab
sham
importer
##ustomed
heid
